{
  "version": "1.0",
  "truncation": null,
  "padding": null,
  "added_tokens": [
    {
      "id": 0,
      "content": "<|endoftext|>",
      "single_word": false,
      "lstrip": false,
      "rstrip": false,
      "normalized": false,
      "special": true
    },
    {
      "id": 1,
      "content": "<|padding|>",
      "single_word": false,
      "lstrip": false,
      "rstrip": false,
      "normalized": false,
      "special": true
    }
  ],
  "normalizer": null,
  "pre_tokenizer": {
    "type": "ByteLevel",
    "add_prefix_space": false,
    "trim_offsets": true,
    "use_regex": true
  },
  "post_processor": null,
  "decoder": {
    "type": "ByteLevel",
    "add_prefix_space": true,
    "trim_offsets": true,
    "use_regex": true
  },
  "model": {
    "type": "BPE",
    "dropout": null,
    "unk_token": null,
    "continuing_subword_prefix": null,
    "end_of_word_suffix": null,
    "fuse_unk": false,
    "byte_fallback": false,
    "ignore_merges": false,
    "vocab": {
      "<|endoftext|>": 0,
      "<|padding|>": 1,
      "!": 2,
      "\"": 3,
      "#": 4,
      "$": 5,
      "%": 6,
      "&": 7,
      "'": 8,
      "(": 9,
      ")": 10,
      "*": 11,
      "+": 12,
      ",": 13,
      "-": 14,
      ".": 15,
      "/": 16,
      "0": 17,
      "1": 18,
      "2": 19,
      "3": 20,
      "4": 21,
      "5": 22,
      "6": 23,
      "7": 24,
      "8": 25,
      "9": 26,
      ":": 27,
      ";": 28,
      "<": 29,
      "=": 30,
      ">": 31,
      "?": 32,
      "@": 33,
      "A": 34,
      "B": 35,
      "C": 36,
      "D": 37,
      "E": 38,
      "F": 39,
      "G": 40,
      "H": 41,
      "I": 42,
      "J": 43,
      "K": 44,
      "L": 45,
      "M": 46,
      "N": 47,
      "O": 48,
      "P": 49,
      "Q": 50,
      "R": 51,
      "S": 52,
      "T": 53,
      "U": 54,
      "V": 55,
      "W": 56,
      "X": 57,
      "Y": 58,
      "Z": 59,
      "[": 60,
      "\\": 61,
      "]": 62,
      "^": 63,
      "_": 64,
      "`": 65,
      "a": 66,
      "b": 67,
      "c": 68,
      "d": 69,
      "e": 70,
      "f": 71,
      "g": 72,
      "h": 73,
      "i": 74,
      "j": 75,
      "k": 76,
      "l": 77,
      "m": 78,
      "n": 79,
      "o": 80,
      "p": 81,
      "q": 82,
      "r": 83,
      "s": 84,
      "t": 85,
      "u": 86,
      "v": 87,
      "w": 88,
      "x": 89,
      "y": 90,
      "z": 91,
      "{": 92,
      "|": 93,
      "}": 94,
      "~": 95,
      "¡": 96,
      "¢": 97,
      "£": 98,
      "¤": 99,
      "¥": 100,
      "¦": 101,
      "§": 102,
      "¨": 103,
      "©": 104,
      "ª": 105,
      "«": 106,
      "¬": 107,
      "®": 108,
      "¯": 109,
      "°": 110,
      "±": 111,
      "²": 112,
      "³": 113,
      "´": 114,
      "µ": 115,
      "¶": 116,
      "·": 117,
      "¸": 118,
      "¹": 119,
      "º": 120,
      "»": 121,
      "¼": 122,
      "½": 123,
      "¾": 124,
      "¿": 125,
      "À": 126,
      "Á": 127,
      "Â": 128,
      "Ã": 129,
      "Ä": 130,
      "Å": 131,
      "Æ": 132,
      "Ç": 133,
      "È": 134,
      "É": 135,
      "Ê": 136,
      "Ë": 137,
      "Ì": 138,
      "Í": 139,
      "Î": 140,
      "Ï": 141,
      "Ð": 142,
      "Ñ": 143,
      "Ò": 144,
      "Ó": 145,
      "Ô": 146,
      "Õ": 147,
      "Ö": 148,
      "×": 149,
      "Ø": 150,
      "Ù": 151,
      "Ú": 152,
      "Û": 153,
      "Ü": 154,
      "Ý": 155,
      "Þ": 156,
      "ß": 157,
      "à": 158,
      "á": 159,
      "â": 160,
      "ã": 161,
      "ä": 162,
      "å": 163,
      "æ": 164,
      "ç": 165,
      "è": 166,
      "é": 167,
      "ê": 168,
      "ë": 169,
      "ì": 170,
      "í": 171,
      "î": 172,
      "ï": 173,
      "ð": 174,
      "ñ": 175,
      "ò": 176,
      "ó": 177,
      "ô": 178,
      "õ": 179,
      "ö": 180,
      "÷": 181,
      "ø": 182,
      "ù": 183,
      "ú": 184,
      "û": 185,
      "ü": 186,
      "ý": 187,
      "þ": 188,
      "ÿ": 189,
      "Ā": 190,
      "ā": 191,
      "Ă": 192,
      "ă": 193,
      "Ą": 194,
      "ą": 195,
      "Ć": 196,
      "ć": 197,
      "Ĉ": 198,
      "ĉ": 199,
      "Ċ": 200,
      "ċ": 201,
      "Č": 202,
      "č": 203,
      "Ď": 204,
      "ď": 205,
      "Đ": 206,
      "đ": 207,
      "Ē": 208,
      "ē": 209,
      "Ĕ": 210,
      "ĕ": 211,
      "Ė": 212,
      "ė": 213,
      "Ę": 214,
      "ę": 215,
      "Ě": 216,
      "ě": 217,
      "Ĝ": 218,
      "ĝ": 219,
      "Ğ": 220,
      "ğ": 221,
      "Ġ": 222,
      "ġ": 223,
      "Ģ": 224,
      "ģ": 225,
      "Ĥ": 226,
      "ĥ": 227,
      "Ħ": 228,
      "ħ": 229,
      "Ĩ": 230,
      "ĩ": 231,
      "Ī": 232,
      "ī": 233,
      "Ĭ": 234,
      "ĭ": 235,
      "Į": 236,
      "į": 237,
      "İ": 238,
      "ı": 239,
      "Ĳ": 240,
      "ĳ": 241,
      "Ĵ": 242,
      "ĵ": 243,
      "Ķ": 244,
      "ķ": 245,
      "ĸ": 246,
      "Ĺ": 247,
      "ĺ": 248,
      "Ļ": 249,
      "ļ": 250,
      "Ľ": 251,
      "ľ": 252,
      "Ŀ": 253,
      "ŀ": 254,
      "Ł": 255,
      "ł": 256,
      "Ń": 257,
      "he": 258,
      "Ġt": 259,
      "Ġa": 260,
      "Ġs": 261,
      "Ġw": 262,
      "nd": 263,
      "Ġthe": 264,
      "ed": 265,
      "in": 266,
      "Ġand": 267,
      "Ġb": 268,
      "Ġto": 269,
      "Ġwa": 270,
      "Ġh": 271,
      "re": 272,
      "it": 273,
      "Ġf": 274,
      "ou": 275,
      "er": 276,
      "Ġl": 277,
      "Ġhe": 278,
      "Ġwas": 279,
      "Ġc": 280,
      "Ġd": 281,
      "Ġm": 282,
      "Ġp": 283,
      "Ġo": 284,
      "ing": 285,
      "om": 286,
      "ar": 287,
      "ay": 288,
      "is": 289,
      "Ġg": 290,
      "The": 291,
      "id": 292,
      "at": 293,
      "ll": 294,
      "en": 295,
      "Ġsa": 296,
      "ne": 297,
      "Ġha": 298,
      "im": 299,
      "le": 300,
      "ĠS": 301,
      "an": 302,
      "or": 303,
      "Ġit": 304,
      "Ġth": 305,
      "ĠThe": 306,
      "et": 307,
      "ĠH": 308,
      "il": 309,
      "on": 310,
      "Ġher": 311,
      "ir": 312,
      "ver": 313,
      "Ġin": 314,
      "Ġe": 315,
      "ĠHe": 316,
      "Ġn": 317,
      "ot": 318,
      "ld": 319,
      "ĠShe": 320,
      "ut": 321,
      "ow": 322,
      "Ġu": 323,
      "Ġbe": 324,
      "ck": 325,
      "ce": 326,
      "Ġsaid": 327,
      "Ġshe": 328,
      "ig": 329,
      "Ġst": 330,
      "oo": 331,
      "Ġso": 332,
      "pp": 333,
      "Ġr": 334,
      "Ġ\"": 335,
      "am": 336,
      "Ġy": 337,
      "ke": 338,
      "Ġof": 339,
      "ve": 340,
      "ith": 341,
      "st": 342,
      "ked": 343,
      "very": 344,
      "Ġhis": 345,
      "Ġwith": 346,
      "ri": 347,
      "Ġday": 348,
      "ĠI": 349,
      "nt": 350,
      "ad": 351,
      "Ġpl": 352,
      "Ġup": 353,
      "Ġthat": 354,
      "ĠThey": 355,
      "Ġhad": 356,
      "Ġyou": 357,
      "ily": 358,
      "itt": 359,
      "el": 360,
      "ould": 361,
      "ĠT": 362,
      "ent": 363,
      "Ġon": 364,
      "es": 365,
      "Ġplay": 366,
      "Ġfor": 367,
      "ĠL": 368,
      "Ġthey": 369,
      "Ġwe": 370,
      "my": 371,
      "ittle": 372,
      "ound": 373,
      "un": 374,
      "ĠĊ": 375,
      "out": 376,
      "Ġlittle": 377,
      "'s": 378,
      "Ġmom": 379,
      "ch": 380,
      "Ġhapp": 381,
      "ly": 382,
      "ime": 383,
      "Ġthere": 384,
      "her": 385,
      "Ġtime": 386,
      "all": 387,
      "Ġsm": 388,
      "Ġsh": 389,
      "Ġvery": 390,
      "Ġli": 391,
      "ht": 392,
      "Ġwh": 393,
      "Ġne": 394,
      "Ġre": 395,
      "ome": 396,
      "ĠB": 397,
      "al": 398,
      "Ġwant": 399,
      "se": 400,
      "Ġdo": 401,
      "end": 402,
      "ack": 403,
      "Ġk": 404,
      "Ġas": 405,
      "On": 406,
      "Ġhappy": 407,
      "Ġbig": 408,
      "Ġan": 409,
      "Ġbut": 410,
      "Once": 411,
      "ra": 412,
      "One": 413,
      "Ġsaw": 414,
      "riend": 415,
      "Ġfriend": 416,
      "ved": 417,
      "Ġloo": 418,
      "'t": 419,
      "irl": 420,
      "ore": 421,
      "ĠLily": 422,
      "ake": 423,
      "ec": 424,
      "ug": 425,
      "Ġgirl": 426,
      "ide": 427,
      "ter": 428,
      "ĠM": 429,
      "Ġbo": 430,
      "ĠIt": 431,
      "Ġwere": 432,
      "Ġex": 433,
      "ill": 434,
      "ĠJ": 435,
      "Ġupon": 436,
      "ry": 437,
      "Ġhim": 438,
      "Ġnot": 439,
      "Ġlo": 440,
      "Ġgo": 441,
      "!\"": 442,
      "Ġj": 443,
      "ard": 444,
      ".\"": 445,
      "Ġout": 446,
      "Ġsp": 447,
      "fu": 448,
      "Ġwanted": 449,
      "Ġar": 450,
      "Ġcould": 451,
      "way": 452,
      "Ġtoo": 453,
      "hen": 454,
      "ur": 455,
      "Ġis": 456,
      "hing": 457,
      "Ã¢": 458,
      "âĤ": 459,
      "âĤ¬": 460,
      "Ġse": 461,
      "ind": 462,
      "ain": 463,
      "ĠTim": 464,
      "ic": 465,
      "art": 466,
      "Ġat": 467,
      "Ġall": 468,
      "ĠA": 469,
      "hed": 470,
      "Ġwent": 471,
      "um": 472,
      "iled": 473,
      "ful": 474,
      "ight": 475,
      "rom": 476,
      "Ġsmiled": 477,
      "lp": 478,
      "Ġaround": 479,
      "Ġthem": 480,
      "Ġfriends": 481,
      "Ġhelp": 482,
      "Ġnam": 483,
      "oug": 484,
      "ood": 485,
      "Ġback": 486,
      "Ġdid": 487,
      "Ġcl": 488,
      "ark": 489,
      "omet": 490,
      "ss": 491,
      "Ġasked": 492,
      "?\"": 493,
      "Ġtheir": 494,
      "Ġhave": 495,
      "Ġca": 496,
      "Ġfun": 497,
      "Ġcan": 498,
      "Ġlooked": 499,
      "Ġsomet": 500,
      "Ġboy": 501,
      "Ġle": 502,
      "one": 503,
      "side": 504,
      "Ġstart": 505,
      "Ġal": 506,
      "ure": 507,
      "elt": 508,
      "Ġfe": 509,
      "Ġwould": 510,
      "Ġfelt": 511,
      "ick": 512,
      "op": 513,
      "Ġloved": 514,
      "Ġnamed": 515,
      "dd": 516,
      "Ġno": 517,
      "get": 518,
      "ĠOne": 519,
      "Ġare": 520,
      "ame": 521,
      "ited": 522,
      "Ġexc": 523,
      "Ġman": 524,
      "ie": 525,
      "ree": 526,
      "Ġsomething": 527,
      "king": 528,
      "ice": 529,
      "ong": 530,
      "Ġwor": 531,
      "Ġlike": 532,
      "Ġsc": 533,
      "Ġbir": 534,
      "Ġstarted": 535,
      "ro": 536,
      "Ġsome": 537,
      "gether": 538,
      "Ġag": 539,
      "Ġme": 540,
      "Ġbird": 541,
      "Ġfa": 542,
      "Ġro": 543,
      "ĠE": 544,
      "Ġsee": 545,
      "ĠTimmy": 546,
      "ade": 547,
      "ag": 548,
      "ĠW": 549,
      "own": 550,
      "pped": 551,
      "Ġaway": 552,
      "Ġexcited": 553,
      "Ġtogether": 554,
      "pl": 555,
      "ings": 556,
      "Ġran": 557,
      "oud": 558,
      "Ġtoy": 559,
      "ĠBen": 560,
      "Ġwhat": 561,
      "Ġthen": 562,
      "ared": 563,
      "Ġmake": 564,
      "Ġmu": 565,
      "ble": 566,
      "if": 567,
      "Ġhome": 568,
      "You": 569,
      "Ġla": 570,
      "Ġch": 571,
      "ally": 572,
      "Ġwal": 573,
      "Ġmade": 574,
      "qu": 575,
      "hat": 576,
      "ĠTom": 577,
      "Ġagain": 578,
      "as": 579,
      "Ġfound": 580,
      "Ġpark": 581,
      "Ġfrom": 582,
      ",\"": 583,
      "Ġdec": 584,
      "ell": 585,
      "Ġwhen": 586,
      "Ġnew": 587,
      "ous": 588,
      "Ġbr": 589,
      "Ġco": 590,
      "ep": 591,
      "Ġwho": 592,
      "ought": 593,
      "Ġevery": 594,
      "Ġot": 595,
      "Ġget": 596,
      "Ġput": 597,
      "ĠBut": 598,
      "Ġplaying": 599,
      "Ġother": 600,
      "Ġone": 601,
      "Ġsad": 602,
      "ile": 603,
      "udd": 604,
      "ided": 605,
      "Ġpr": 606,
      "Ġdecided": 607,
      "Ġfl": 608,
      "Ġcar": 609,
      "Ġold": 610,
      "ave": 611,
      "Ġv": 612,
      "Ġbu": 613,
      "Ġhug": 614,
      "Ġgot": 615,
      "bb": 616,
      "Ġsay": 617,
      "Ġgood": 618,
      "Ġthings": 619,
      "ach": 620,
      "ried": 621,
      "ĠD": 622,
      "ny": 623,
      "ust": 624,
      "Ġthan": 625,
      "eci": 626,
      "ouse": 627,
      "Ġbec": 628,
      "Ġfeel": 629,
      "Ġfind": 630,
      "Ġdown": 631,
      "udden": 632,
      "Ġsw": 633,
      "Ġke": 634,
      "Ġkn": 635,
      "Ġcame": 636,
      "ecial": 637,
      "Ġspecial": 638,
      "ways": 639,
      "Ġbl": 640,
      "uddenly": 641,
      "Ġtree": 642,
      "Ġab": 643,
      "nder": 644,
      "Ġalways": 645,
      "Ġlot": 646,
      "Ġscared": 647,
      "ue": 648,
      "Ġkne": 649,
      "Ġpo": 650,
      "ched": 651,
      "Ġtake": 652,
      "Ġthought": 653,
      "ook": 654,
      "Ġint": 655,
      "ant": 656,
      "ĠF": 657,
      "our": 658,
      "ist": 659,
      "Ġgra": 660,
      "ge": 661,
      "Ġabout": 662,
      "ite": 663,
      "Ġcare": 664,
      "Ġdad": 665,
      "Ġgr": 666,
      "Ġexpl": 667,
      "Ġtook": 668,
      "ĠEvery": 669,
      "Ġlook": 670,
      "ened": 671,
      "Ġdidn": 672,
      "fe": 673,
      "ise": 674,
      "Ġliked": 675,
      "Ġlaug": 676,
      "Åĵ": 677,
      "fter": 678,
      "uck": 679,
      "ĠYou": 680,
      "ma": 681,
      "Ġpe": 682,
      "reat": 683,
      "Ġta": 684,
      "Lily": 685,
      "Ġpa": 686,
      "Ġknew": 687,
      "ven": 688,
      "Ġdog": 689,
      "Ġho": 690,
      "Ġtw": 691,
      "Ġmore": 692,
      "Ġyour": 693,
      "Ġoutside": 694,
      "ers": 695,
      "Ġcat": 696,
      "Ġsk": 697,
      "ned": 698,
      "Ġcouldn": 699,
      "Ġen": 700,
      "ive": 701,
      "ĠJo": 702,
      "Ġhow": 703,
      "ace": 704,
      "Ġmy": 705,
      "Ġqu": 706,
      "lly": 707,
      "Ġmuch": 708,
      "by": 709,
      "ged": 710,
      "uc": 711,
      "ĠÃ¢": 712,
      "Ġsun": 713,
      "Ġmo": 714,
      "ret": 715,
      "Ġnever": 716,
      "ion": 717,
      "Ġinto": 718,
      "Ġtr": 719,
      "ara": 720,
      "Ġover": 721,
      "Ġany": 722,
      "ĠMom": 723,
      "Ġjo": 724,
      "Ġknow": 725,
      "Ġproud": 726,
      "Ġclo": 727,
      "us": 728,
      "Ġlear": 729,
      "ax": 730,
      "Ġshow": 731,
      "Ġthis": 732,
      "Ġstr": 733,
      "ough": 734,
      "ĠJack": 735,
      "hn": 736,
      "Ġif": 737,
      "Ġheard": 738,
      "Ġmommy": 739,
      "Ġsays": 740,
      "pt": 741,
      "vent": 742,
      "ish": 743,
      "Ġinside": 744,
      "ning": 745,
      "au": 746,
      "Ġcall": 747,
      "Ġad": 748,
      "Ġop": 749,
      "oth": 750,
      "Ġwill": 751,
      "Ġhouse": 752,
      "Ġfo": 753,
      "ild": 754,
      "dy": 755,
      "ear": 756,
      "Ġball": 757,
      "Ġhand": 758,
      "Ġoff": 759,
      "Ġtold": 760,
      "ort": 761,
      "But": 762,
      "sel": 763,
      "Ġgave": 764,
      "ving": 765,
      "Ġsmall": 766,
      "Ġtoys": 767,
      "other": 768,
      "âĤ¬â": 769,
      "here": 770,
      "na": 771,
      "Ġwat": 772,
      "Ġwater": 773,
      "Ġjust": 774,
      "Ġra": 775,
      "Ġbea": 776,
      "ĠSo": 777,
      "ntil": 778,
      "Ġpick": 779,
      "Ġrun": 780,
      "ump": 781,
      "ause": 782,
      "Ġcom": 783,
      "They": 784,
      "Ġuntil": 785,
      "Ġlong": 786,
      "Ġbeaut": 787,
      "ate": 788,
      "urp": 789,
      "Ġtried": 790,
      "Ġroom": 791,
      "Ġthanked": 792,
      "Ġtry": 793,
      "ady": 794,
      "Ħ¢": 795,
      "âĤ¬âĦ¢": 796,
      "Ġbecause": 797,
      "ank": 798,
      "ap": 799,
      "Ġlots": 800,
      "Ġgard": 801,
      "Ġgarden": 802,
      "etter": 803,
      "Ġplayed": 804,
      "Ġeven": 805,
      "ucy": 806,
      "Ġsl": 807,
      "Ġneed": 808,
      "Ġeat": 809,
      "ty": 810,
      "Ġby": 811,
      "ĠSam": 812,
      "self": 813,
      "Ġbeauti": 814,
      "ink": 815,
      "Ġbeautiful": 816,
      "em": 817,
      "Ġcalled": 818,
      "Ġor": 819,
      "Ġhugged": 820,
      "iz": 821,
      "Ġlaughed": 822,
      "nna": 823,
      "Ġway": 824,
      "Ġbest": 825,
      "ane": 826,
      "ct": 827,
      "Ġend": 828,
      "Ġflow": 829,
      "and": 830,
      "ered": 831,
      "ine": 832,
      "ob": 833,
      "sed": 834,
      "Ġsky": 835,
      "lew": 836,
      "Ġbear": 837,
      "ĠMax": 838,
      "Ġtwo": 839,
      "rent": 840,
      "imal": 841,
      "Ġanimal": 842,
      "ft": 843,
      "When": 844,
      "ia": 845,
      "Ġim": 846,
      "Ġpret": 847,
      "Ġexplore": 848,
      "Ġeach": 849,
      "Ġpu": 850,
      "It": 851,
      "Ġwo": 852,
      "Ġbox": 853,
      "Ġcu": 854,
      "rave": 855,
      "Ġdon": 856,
      "ĠHis": 857,
      "'m": 858,
      "He": 859,
      "Mom": 860,
      "Ġdre": 861,
      "Ġfast": 862,
      "ess": 863,
      "Ġlived": 864,
      "Ġche": 865,
      "Ġbetter": 866,
      "Ġnice": 867,
      "ĠHer": 868,
      "ect": 869,
      "Ġadvent": 870,
      "Ġfam": 871,
      "Ġkept": 872,
      "iny": 873,
      "Ġmany": 874,
      "Ġboth": 875,
      "urpr": 876,
      "Yes": 877,
      "ĠP": 878,
      "Let": 879,
      "Ġsurpr": 880,
      "Ġkind": 881,
      "Ġsmile": 882,
      "Ġcle": 883,
      "Ġjump": 884,
      "Ġstay": 885,
      "ĠSara": 886,
      "So": 887,
      "ĠC": 888,
      "Ġhard": 889,
      "ĠThen": 890,
      "Ġflew": 891,
      "are": 892,
      "Ġcome": 893,
      "Ġmum": 894,
      "Ġfin": 895,
      "fore": 896,
      "Ġrem": 897,
      "orry": 898,
      "Ġfeeling": 899,
      "What": 900,
      "Ġits": 901,
      "Ġbrave": 902,
      "Ġsoon": 903,
      "urt": 904,
      "Ġte": 905,
      "Ġgl": 906,
      "Ġwalked": 907,
      "ised": 908,
      "Ġstill": 909,
      "Ġadventure": 910,
      "ĠLucy": 911,
      "Ġfly": 912,
      "Ġfamily": 913,
      "Ġfi": 914,
      "ĠAnd": 915,
      "Ġsto": 916,
      "Th": 917,
      "Ġcol": 918,
      "iced": 919,
      "igh": 920,
      "Ġlove": 921,
      "led": 922,
      "Ġbefore": 923,
      "ĠFrom": 924,
      "Ġcareful": 925,
      "ary": 926,
      "Ġlearned": 927,
      "Ġfore": 928,
      "Ġloud": 929,
      "Ġcon": 930,
      "ople": 931,
      "Ġanimals": 932,
      "Ġplace": 933,
      "Ġow": 934,
      "Ġsorry": 935,
      "Ġyear": 936,
      "Ġwalking": 937,
      "gry": 938,
      "Ġfar": 939,
      "ip": 940,
      "ies": 941,
      "Ġunder": 942,
      "Ġsafe": 943,
      "ool": 944,
      "Ġgoing": 945,
      "Tom": 946,
      "illy": 947,
      "ĠWe": 948,
      "oy": 949,
      "Ġimp": 950,
      "ied": 951,
      "Ġnow": 952,
      "sh": 953,
      "ĠSuddenly": 954,
      "ĠWhen": 955,
      "Ġfr": 956,
      "Ġstopped": 957,
      "Ġnoticed": 958,
      "Ġpeople": 959,
      "xt": 960,
      "That": 961,
      "Ġlist": 962,
      "gan": 963,
      "Ġquick": 964,
      "ase": 965,
      "Jo": 966,
      "Ġlet": 967,
      "joy": 968,
      "Ġdel": 969,
      "Ġdan": 970,
      "Tim": 971,
      "ĠAnna": 972,
      "olly": 973,
      "Ġthree": 974,
      "maz": 975,
      "thing": 976,
      "Ġamaz": 977,
      "ished": 978,
      "ious": 979,
      "Ġstor": 980,
      "dded": 981,
      "bbit": 982,
      "Ġopened": 983,
      "ser": 984,
      "Ġey": 985,
      "Ġwind": 986,
      "Ġeveryone": 987,
      "Ġide": 988,
      "Ġma": 989,
      "eet": 990,
      "Ġvo": 991,
      "ĠJohn": 992,
      "Suddenly": 993,
      "ange": 994,
      "ught": 995,
      "Ġquickly": 996,
      "Ġdis": 997,
      "Ġwar": 998,
      "Ġde": 999,
      "Ġred": 1000,
      "Ġwhile": 1001,
      "Ġenjoy": 1002,
      "Ġkeep": 1003,
      "Ġrabbit": 1004,
      "Ġidea": 1005,
      "ting": 1006,
      "Ġtow": 1007,
      "Ġthr": 1008,
      "ĠG": 1009,
      "Ġgreat": 1010,
      "Ġground": 1011,
      "isy": 1012,
      "Ġlooking": 1013,
      "Ġwonder": 1014,
      "hes": 1015,
      "ummy": 1016,
      "ger": 1017,
      "Ġtre": 1018,
      "Ġshould": 1019,
      "Ġwork": 1020,
      "age": 1021,
      "Ġdoor": 1022,
      "emb": 1023,
      "ĠBob": 1024,
      "Ġun": 1025,
      "Ġshiny": 1026,
      "Ġrepl": 1027,
      "Ġbeen": 1028,
      "Ġchild": 1029,
      "Ġtur": 1030,
      "Ġvoice": 1031,
      "Ġwr": 1032,
      "Ġnext": 1033,
      "Ġbed": 1034,
      "Ġever": 1035,
      "Ġsn": 1036,
      "Ġmor": 1037,
      "Ġbright": 1038,
      "Ġrememb": 1039,
      "ted": 1040,
      "Ġpicked": 1041,
      "ff": 1042,
      "ĠN": 1043,
      "ĠJane": 1044,
      "bye": 1045,
      "ner": 1046,
      "Ġface": 1047,
      "Ġeyes": 1048,
      "hy": 1049,
      "ĠDad": 1050,
      "Ġreal": 1051,
      "Ġnodded": 1052,
      "ak": 1053,
      "Ġforest": 1054,
      "Ġafter": 1055,
      "Ġcuri": 1056,
      "uch": 1057,
      "Ġwalk": 1058,
      "Ġnear": 1059,
      "Ġreplied": 1060,
      "Ġdra": 1061,
      "Ġrock": 1062,
      "Ġgoodbye": 1063,
      "Ġclean": 1064,
      "Ġnoise": 1065,
      "aisy": 1066,
      "Ġcry": 1067,
      "Ġbegan": 1068,
      "Ġcloser": 1069,
      "able": 1070,
      "Ġgive": 1071,
      "Ġpretty": 1072,
      "Ġsqu": 1073,
      "Ġshare": 1074,
      "Ġhands": 1075,
      "Ġcurious": 1076,
      "Ġgre": 1077,
      "bbed": 1078,
      "Ġhurt": 1079,
      "Ġper": 1080,
      "ock": 1081,
      "Ġfood": 1082,
      "Ġpain": 1083,
      "ĠAs": 1084,
      "lie": 1085,
      "Ġpic": 1086,
      "Ġblue": 1087,
      "irst": 1088,
      "Ġbad": 1089,
      "Ġwait": 1090,
      "Ġapp": 1091,
      "Ġsound": 1092,
      "Ġdif": 1093,
      "Ġwatched": 1094,
      "Ġstrong": 1095,
      "Ġbook": 1096,
      "Ġtruck": 1097,
      "day": 1098,
      "Ġfish": 1099,
      "Ġbeing": 1100,
      "Ġright": 1101,
      "Ġcolor": 1102,
      "ired": 1103,
      "Ġworld": 1104,
      "ng": 1105,
      "be": 1106,
      "Ġbit": 1107,
      "ĠMia": 1108,
      "John": 1109,
      "les": 1110,
      "ĠJoe": 1111,
      "Ġwatch": 1112,
      "Ġmag": 1113,
      "imb": 1114,
      "Ġdoll": 1115,
      "Ġbecame": 1116,
      "Ġshout": 1117,
      "ĠEveryone": 1118,
      "Ġclimb": 1119,
      "Ġ-": 1120,
      "Ġleave": 1121,
      "Ġboat": 1122,
      "Ġthrough": 1123,
      "llow": 1124,
      "ull": 1125,
      "Ġyell": 1126,
      "ster": 1127,
      "ĠMommy": 1128,
      "Ġsure": 1129,
      "Ġangry": 1130,
      "No": 1131,
      "kay": 1132,
      "Ġbutter": 1133,
      "Ġstore": 1134,
      "oon": 1135,
      "Ġhere": 1136,
      "Ġmouse": 1137,
      "Ġyears": 1138,
      "Ġnight": 1139,
      "Ġhopped": 1140,
      "Ġac": 1141,
      "Ġwhere": 1142,
      "Ġhead": 1143,
      "ĠDaisy": 1144,
      "Ġshowed": 1145,
      "ĠR": 1146,
      "ream": 1147,
      "Ġcont": 1148,
      "so": 1149,
      "ppy": 1150,
      "Ġrain": 1151,
      "Ġseen": 1152,
      "ached": 1153,
      "Ġready": 1154,
      "Ġfollow": 1155,
      "Ġflowers": 1156,
      "Ġtal": 1157,
      "Ġfill": 1158,
      "Ġdiffe": 1159,
      "Ġwhy": 1160,
      "Ġwarm": 1161,
      "Ġgrabbed": 1162,
      "ture": 1163,
      "Ġfirst": 1164,
      "Ġimport": 1165,
      "Ġwaved": 1166,
      "Thank": 1167,
      "Ġalso": 1168,
      "ol": 1169,
      "Ġmagic": 1170,
      "Ġhigh": 1171,
      "ĠSue": 1172,
      "Ġname": 1173,
      "Ġjumped": 1174,
      "Ġhappened": 1175,
      "ac": 1176,
      "leep": 1177,
      "Ġuse": 1178,
      "fully": 1179,
      "zy": 1180,
      "ĠSp": 1181,
      "Ġdress": 1182,
      "Ġdifferent": 1183,
      "Ġimportant": 1184,
      "Ġreally": 1185,
      "Ġlisten": 1186,
      "Ġus": 1187,
      "ized": 1188,
      "Ġflower": 1189,
      "Ġtired": 1190,
      "ount": 1191,
      "Ġste": 1192,
      "Ġhaving": 1193,
      "Ġparent": 1194,
      "Ġbro": 1195,
      "Ġsweet": 1196,
      "Ben": 1197,
      "Ġwood": 1198,
      "Ġgame": 1199,
      "Ġgrass": 1200,
      "After": 1201,
      "She": 1202,
      "itc": 1203,
      "Ġrunning": 1204,
      "Ġpicture": 1205,
      "Jack": 1206,
      "Ġba": 1207,
      "Ġsurprise": 1208,
      "cket": 1209,
      "Ġperf": 1210,
      "Her": 1211,
      "mer": 1212,
      "Ġreached": 1213,
      "Ġdone": 1214,
      "Ġbutterf": 1215,
      "Ġbug": 1216,
      "Ġlady": 1217,
      "Ġcr": 1218,
      "Ġpat": 1219,
      "unny": 1220,
      "Ġshouted": 1221,
      "Ġhimself": 1222,
      "Ġparents": 1223,
      "\".": 1224,
      "ren": 1225,
      "ather": 1226,
      "lease": 1227,
      "Ġthing": 1228,
      "Ġopen": 1229,
      "Mommy": 1230,
      "Ġthink": 1231,
      "Ġru": 1232,
      "Ġdelic": 1233,
      "where": 1234,
      "ĠSarah": 1235,
      "Ġz": 1236,
      "Ġfro": 1237,
      "Ġtast": 1238,
      "ient": 1239,
      "Ġtell": 1240,
      "Ġenjoyed": 1241,
      "Ġhop": 1242,
      "Ġrest": 1243,
      "Ġkid": 1244,
      "Ġbeh": 1245,
      "Ġstory": 1246,
      "Ġcarefully": 1247,
      "Ġglad": 1248,
      "Ġfilled": 1249,
      "Ġset": 1250,
      "Ġhelped": 1251,
      "Ġsand": 1252,
      "Ġfire": 1253,
      "Ġonly": 1254,
      "Ġwonderful": 1255,
      "Ġchildren": 1256,
      "uff": 1257,
      "imes": 1258,
      "Ġbirds": 1259,
      "more": 1260,
      "ĠAfter": 1261,
      "Ġanymore": 1262,
      "Ġcla": 1263,
      "lled": 1264,
      "Ġmorning": 1265,
      "Ġgreen": 1266,
      "Ġslow": 1267,
      "th": 1268,
      "ued": 1269,
      "Ġtra": 1270,
      "Ġcreat": 1271,
      "Ġhappily": 1272,
      "est": 1273,
      "Ġdark": 1274,
      "Ġstick": 1275,
      "Ġworked": 1276,
      "Can": 1277,
      "per": 1278,
      "Ġfull": 1279,
      "ation": 1280,
      "ama": 1281,
      "ssed": 1282,
      "Ġcoming": 1283,
      "Ġpie": 1284,
      "ĠSpot": 1285,
      "Ġtop": 1286,
      "Ġcatch": 1287,
      "Ġlight": 1288,
      "iss": 1289,
      "Ġsmell": 1290,
      "Ġarri": 1291,
      "ul": 1292,
      "Ġkitc": 1293,
      "ĠMolly": 1294,
      "Ġkitchen": 1295,
      "ĠIn": 1296,
      "Ġask": 1297,
      "Ġworry": 1298,
      "Ġfav": 1299,
      "ĠEm": 1300,
      "rel": 1301,
      "Ġmon": 1302,
      "aught": 1303,
      "Ġbrother": 1304,
      "Ġstrange": 1305,
      "Look": 1306,
      "Ġtall": 1307,
      "Ġherself": 1308,
      "Ġbutterfly": 1309,
      "Ġfrog": 1310,
      "Ġam": 1311,
      "Ġdin": 1312,
      "Ġspot": 1313,
      "Ġunderst": 1314,
      "ken": 1315,
      "aybe": 1316,
      "Ġforg": 1317,
      "Ġable": 1318,
      "ndma": 1319,
      "ĠSally": 1320,
      "Ġsurprised": 1321,
      "Ġarrived": 1322,
      "Ġcra": 1323,
      "Ġdri": 1324,
      "Ġflo": 1325,
      "Sara": 1326,
      "ĠLet": 1327,
      "Ġamazing": 1328,
      "ards": 1329,
      "Ġate": 1330,
      "Ġmove": 1331,
      "inally": 1332,
      "reed": 1333,
      "oring": 1334,
      "Ġsoft": 1335,
      "Ġbunny": 1336,
      "Ġdr": 1337,
      "Ġsat": 1338,
      "Ġmean": 1339,
      "Ġpond": 1340,
      "Ġenough": 1341,
      "sy": 1342,
      "ined": 1343,
      "Ġokay": 1344,
      "Ġyummy": 1345,
      "Don": 1346,
      "sp": 1347,
      "Ġused": 1348,
      "Ġfinished": 1349,
      "Ġless": 1350,
      "Ġdream": 1351,
      "Ġmaking": 1352,
      "Ġkids": 1353,
      "We": 1354,
      "iver": 1355,
      "Ġmother": 1356,
      "aring": 1357,
      "room": 1358,
      "Ġremembered": 1359,
      "Ġhid": 1360,
      "ĠTh": 1361,
      "ĠTo": 1362,
      "Ġfell": 1363,
      "Ġprin": 1364,
      "Ġlearn": 1365,
      "Timmy": 1366,
      "Ġtrees": 1367,
      "Ġcontin": 1368,
      "Ġhas": 1369,
      "Ġdelicious": 1370,
      "ars": 1371,
      "ĠThat": 1372,
      "Ġfew": 1373,
      "Ġperfect": 1374,
      "Ġpiece": 1375,
      "Ġsing": 1376,
      "Ġpre": 1377,
      "ated": 1378,
      "ater": 1379,
      "Ġbehind": 1380,
      "ber": 1381,
      "Ġsleep": 1382,
      "Ġprom": 1383,
      "ign": 1384,
      "Ġstop": 1385,
      "Ġswim": 1386,
      "Ġyellow": 1387,
      "'re": 1388,
      "As": 1389,
      "ila": 1390,
      "Ġgetting": 1391,
      "Ġdro": 1392,
      "Ġtrying": 1393,
      "At": 1394,
      "His": 1395,
      "Ġve": 1396,
      "immy": 1397,
      "Ġcook": 1398,
      "Ġlion": 1399,
      "Ġfunny": 1400,
      "Ġanything": 1401,
      "Ġair": 1402,
      "Ġgone": 1403,
      "asure": 1404,
      "Ġown": 1405,
      "Ġrealized": 1406,
      "Ġwoods": 1407,
      "Ġfox": 1408,
      "Ġhair": 1409,
      "Ġcontinued": 1410,
      "red": 1411,
      "sc": 1412,
      "ross": 1413,
      "Ġjoy": 1414,
      "Ġslide": 1415,
      "Ġfriendly": 1416,
      "Ġfair": 1417,
      "ced": 1418,
      "Ġheld": 1419,
      "Then": 1420,
      "Ġleft": 1421,
      "Ġhole": 1422,
      "Ġpuppy": 1423,
      "Ġfinally": 1424,
      "Ġdraw": 1425,
      "Ġdeep": 1426,
      "gon": 1427,
      "Ġtri": 1428,
      "Ġtouch": 1429,
      "Ġyes": 1430,
      "Ġwrong": 1431,
      "bo": 1432,
      "ike": 1433,
      "ling": 1434,
      "Ġmess": 1435,
      "Ġpart": 1436,
      "ĠThere": 1437,
      "Ġcold": 1438,
      "Ġgent": 1439,
      "irrel": 1440,
      "Ġneeded": 1441,
      "Ġfollowed": 1442,
      "ually": 1443,
      "ich": 1444,
      "Ġpus": 1445,
      "pping": 1446,
      "icy": 1447,
      "ask": 1448,
      "co": 1449,
      "Ġbow": 1450,
      "Ġcut": 1451,
      "Ġdoing": 1452,
      "Ġfix": 1453,
      "Ġbat": 1454,
      "Ġmoment": 1455,
      "Ġleaves": 1456,
      "'ll": 1457,
      "Ġsec": 1458,
      "ĠJill": 1459,
      "Ġagreed": 1460,
      "Ġblock": 1461,
      "Ġlooks": 1462,
      "Ġcomp": 1463,
      "eter": 1464,
      "Ġpretend": 1465,
      "av": 1466,
      "ĠK": 1467,
      "Ġel": 1468,
      "Ġbrought": 1469,
      "Ġsquirrel": 1470,
      "air": 1471,
      "Ġice": 1472,
      "oney": 1473,
      "Ġbuy": 1474,
      "Ġsear": 1475,
      "Ġthank": 1476,
      "ĠGra": 1477,
      "Ġour": 1478,
      "ield": 1479,
      "Ġwindow": 1480,
      "Ġmagical": 1481,
      "Hell": 1482,
      "Wow": 1483,
      "Ġcool": 1484,
      "Ġbee": 1485,
      "Ġsho": 1486,
      "Ġwhite": 1487,
      "Ġvis": 1488,
      "ĠNow": 1489,
      "Ġbaby": 1490,
      "Ġfavor": 1491,
      "Hello": 1492,
      "Ġtight": 1493,
      "Ġhill": 1494,
      "Ġstepped": 1495,
      "Ġlesson": 1496,
      "Ġfavorite": 1497,
      "med": 1498,
      "Ġcake": 1499,
      "Ġmar": 1500,
      "Ġbuild": 1501,
      "Ġstayed": 1502,
      "Sam": 1503,
      "ph": 1504,
      "Ġanother": 1505,
      "Ġsomeone": 1506,
      "From": 1507,
      "Ġduck": 1508,
      "Ġswing": 1509,
      "ash": 1510,
      "Ġflying": 1511,
      "Ġdinner": 1512,
      "sic": 1513,
      "ze": 1514,
      "Ġwasn": 1515,
      "enny": 1516,
      "Ġbag": 1517,
      "Ġdoes": 1518,
      "Ġmusic": 1519,
      "me": 1520,
      "amp": 1521,
      "Ġread": 1522,
      "Ġeverything": 1523,
      "Ġunderstand": 1524,
      "Ġspark": 1525,
      "Ġelse": 1526,
      "mb": 1527,
      "Ġhun": 1528,
      "Ġspl": 1529,
      "This": 1530,
      "Ġamazed": 1531,
      "Ġlost": 1532,
      "Ġmat": 1533,
      "Ġmet": 1534,
      "cess": 1535,
      "Ġsong": 1536,
      "Ġcand": 1537,
      "ĠTommy": 1538,
      "Ġclose": 1539,
      "ventually": 1540,
      "Ġfarmer": 1541,
      "itten": 1542,
      "ĠCan": 1543,
      "lice": 1544,
      "oom": 1545,
      "set": 1546,
      "Ġbel": 1547,
      "Ġexploring": 1548,
      "Ġtable": 1549,
      "Ġslowly": 1550,
      "Anna": 1551,
      "iting": 1552,
      "Ġbeach": 1553,
      "Ġlaugh": 1554,
      "ire": 1555,
      "Ġbre": 1556,
      "ames": 1557,
      "Ġmost": 1558,
      "Ġballoon": 1559,
      "Ġforgot": 1560,
      "Ġjob": 1561,
      "ctor": 1562,
      "Ġpet": 1563,
      "Ġbigger": 1564,
      "ĠAll": 1565,
      "Ġturn": 1566,
      "Ġpaint": 1567,
      "Ġwished": 1568,
      "ower": 1569,
      "Ġcloud": 1570,
      "br": 1571,
      "Ġlake": 1572,
      "Ġhear": 1573,
      "Ġdir": 1574,
      "Ġbelie": 1575,
      "bby": 1576,
      "ment": 1577,
      "row": 1578,
      "ins": 1579,
      "Ġcount": 1580,
      "Ġmight": 1581,
      "sw": 1582,
      "Ġsu": 1583,
      "uffy": 1584,
      "eared": 1585,
      "gle": 1586,
      "Ġfield": 1587,
      "Ġgu": 1588,
      "Ġbroken": 1589,
      "Ġfur": 1590,
      "ance": 1591,
      "Ġansw": 1592,
      "Ġfaster": 1593,
      "Ġwon": 1594,
      "Ġword": 1595,
      "Ġmust": 1596,
      "Ġpoin": 1597,
      "Ġride": 1598,
      "Ġju": 1599,
      "Ġwaited": 1600,
      "ĠBenny": 1601,
      "Ġacross": 1602,
      "Ġwall": 1603,
      "Ġce": 1604,
      "anc": 1605,
      "Ġarm": 1606,
      "ĠAmy": 1607,
      "Ġcars": 1608,
      "Ġhold": 1609,
      "Ġjoin": 1610,
      "Ġturned": 1611,
      "Ġplease": 1612,
      "iling": 1613,
      "ĠWhat": 1614,
      "ĠBilly": 1615,
      "ast": 1616,
      "Ġbar": 1617,
      "leph": 1618,
      "os": 1619,
      "zz": 1620,
      "Ġside": 1621,
      "ence": 1622,
      "Ġneigh": 1623,
      "Ġblack": 1624,
      "Ġtowards": 1625,
      "Ġneighb": 1626,
      "ming": 1627,
      "Ġsuch": 1628,
      "Ġwhe": 1629,
      "Ġhor": 1630,
      "Ġgi": 1631,
      "key": 1632,
      "Ġshared": 1633,
      "Ġadventures": 1634,
      "Ġpromised": 1635,
      "Ġblocks": 1636,
      "Oh": 1637,
      "oup": 1638,
      "Ġcried": 1639,
      "Ġpro": 1640,
      "Ġlonger": 1641,
      "Ġlistened": 1642,
      "Ġsilly": 1643,
      "Ġcast": 1644,
      "Ġalone": 1645,
      "Ġsecret": 1646,
      "app": 1647,
      "Ġhat": 1648,
      "Ġstu": 1649,
      "ĠLila": 1650,
      "Ġsometimes": 1651,
      "Ġcup": 1652,
      "Ġcheered": 1653,
      "Ġsuddenly": 1654,
      "Ġdaddy": 1655,
      "Ġremember": 1656,
      "ĠDaddy": 1657,
      "ĠThis": 1658,
      "Ġvisit": 1659,
      "Why": 1660,
      "gg": 1661,
      "Ġpink": 1662,
      "ves": 1663,
      "Ġworried": 1664,
      "Ġclapped": 1665,
      "Finally": 1666,
      "Ġhot": 1667,
      "Ġhappen": 1668,
      "Ġorange": 1669,
      "Ġowl": 1670,
      "avy": 1671,
      "ope": 1672,
      "Ġothers": 1673,
      "Ġdisapp": 1674,
      "Ġclimbed": 1675,
      "Ġbelieve": 1676,
      "ee": 1677,
      "Ġscary": 1678,
      "ĠDo": 1679,
      "ney": 1680,
      "ott": 1681,
      "Ġtail": 1682,
      "Ġbooks": 1683,
      "Ġfloor": 1684,
      "fort": 1685,
      "Ġatt": 1686,
      "Ġseemed": 1687,
      "iet": 1688,
      "ipped": 1689,
      "Ġsmo": 1690,
      "Ġrelie": 1691,
      "ract": 1692,
      "Ġlone": 1693,
      "Ġcolour": 1694,
      "Ġtalk": 1695,
      "Ġhungry": 1696,
      "Ġhide": 1697,
      "Ġcor": 1698,
      "Ġriver": 1699,
      "Ġplant": 1700,
      "andy": 1701,
      "Ġtreasure": 1702,
      "Ġwet": 1703,
      "ained": 1704,
      "Ġalong": 1705,
      "ased": 1706,
      "Ġdanger": 1707,
      "Ġbreak": 1708,
      "Lucy": 1709,
      "Ġsame": 1710,
      "Ġshap": 1711,
      "Ġje": 1712,
      "ush": 1713,
      "Ġdragon": 1714,
      "Ġlonely": 1715,
      "der": 1716,
      "ek": 1717,
      "eddy": 1718,
      "Ġyoung": 1719,
      "chool": 1720,
      "ĠMary": 1721,
      "ĠFl": 1722,
      "Ġcolors": 1723,
      "Ġhig": 1724,
      "Ġheavy": 1725,
      "less": 1726,
      "orm": 1727,
      "ons": 1728,
      "fused": 1729,
      "Ġhelping": 1730,
      "Ġgrow": 1731,
      "Ġmoral": 1732,
      "Ġ3": 1733,
      "itty": 1734,
      "Ġsees": 1735,
      "Ġpulled": 1736,
      "Hi": 1737,
      "Ġpocket": 1738,
      "Ġnearby": 1739,
      "Ġfight": 1740,
      "Ġstone": 1741,
      "Ġclot": 1742,
      "Ġpictures": 1743,
      "weet": 1744,
      "Ġob": 1745,
      "ries": 1746,
      "Ġshop": 1747,
      "Ġcastle": 1748,
      "Ġrelieved": 1749,
      "Ġclothes": 1750,
      "Ġtreat": 1751,
      "Ġschool": 1752,
      "Ġbott": 1753,
      "Ġsail": 1754,
      "ely": 1755,
      "Ġliving": 1756,
      "Ġteac": 1757,
      "And": 1758,
      "elc": 1759,
      "umb": 1760,
      "Ġcho": 1761,
      "Ġquiet": 1762,
      "Ġcolorful": 1763,
      "Ġgentle": 1764,
      "ix": 1765,
      "Ġtiny": 1766,
      "Ġeleph": 1767,
      "ucky": 1768,
      "Ġpaper": 1769,
      "Ġelephant": 1770,
      "thy": 1771,
      "Ġmoney": 1772,
      "Ġnap": 1773,
      "Ġdoctor": 1774,
      "Ġjour": 1775,
      "Ġbucket": 1776,
      "ions": 1777,
      "Ġtown": 1778,
      "Ġpieces": 1779,
      "Ġpers": 1780,
      "Ġeverywhere": 1781,
      "ĠEmma": 1782,
      "Ġhigher": 1783,
      "Ġsit": 1784,
      "Ġpig": 1785,
      "Ġstre": 1786,
      "Ġwithout": 1787,
      "Ġcave": 1788,
      "Ġclosed": 1789,
      "Ġbike": 1790,
      "ister": 1791,
      "ĠJimmy": 1792,
      "Ġcaught": 1793,
      "Ġsnow": 1794,
      "Ġcookies": 1795,
      "lf": 1796,
      "rew": 1797,
      "Ġstand": 1798,
      "Ġland": 1799,
      "Ġtrain": 1800,
      "Ġmonster": 1801,
      "Bob": 1802,
      "never": 1803,
      "ored": 1804,
      "Ġrace": 1805,
      "Ġsea": 1806,
      "Ġfall": 1807,
      "Ġdes": 1808,
      "Ġrel": 1809,
      "Ġexciting": 1810,
      "Ġlikes": 1811,
      "Ġeating": 1812,
      "Ġfree": 1813,
      "Ġpurp": 1814,
      "Ġbus": 1815,
      "Ġblank": 1816,
      "Ġmoved": 1817,
      "Ġdrove": 1818,
      "Ġbath": 1819,
      "Max": 1820,
      "uit": 1821,
      "Ġtoday": 1822,
      "Ġheart": 1823,
      "ises": 1824,
      "Ġsnack": 1825,
      "Maybe": 1826,
      "Ġplan": 1827,
      "Ġwear": 1828,
      "Ġreach": 1829,
      "Ġkite": 1830,
      "Ġgrate": 1831,
      "ĠSoon": 1832,
      "Ġfairy": 1833,
      "Ġwords": 1834,
      "Ġteacher": 1835,
      "Ġpurple": 1836,
      "Molly": 1837,
      "oun": 1838,
      "Ġmin": 1839,
      "Ġpack": 1840,
      "ĠMama": 1841,
      "Ġgrandma": 1842,
      "Ġblanket": 1843,
      "Ġsister": 1844,
      "Ġwelc": 1845,
      "Ġhar": 1846,
      "Ġcream": 1847,
      "Ġnaught": 1848,
      "Ġtaking": 1849,
      "Ġsmiles": 1850,
      "aughter": 1851,
      "Ġgrateful": 1852,
      "Do": 1853,
      "bble": 1854,
      "pe": 1855,
      "ward": 1856,
      "yard": 1857,
      "Ġmakes": 1858,
      "ÅĵI": 1859,
      "Ġdisco": 1860,
      "Ġheal": 1861,
      "lebr": 1862,
      "Ġthough": 1863,
      "vered": 1864,
      "ĠMr": 1865,
      "Ġparty": 1866,
      "Ġcandy": 1867,
      "Ġcelebr": 1868,
      "Ġdangerous": 1869,
      "ining": 1870,
      "Ġbackyard": 1871,
      "Ġwoke": 1872,
      "unch": 1873,
      "Ġret": 1874,
      "Ġwise": 1875,
      "Ġmix": 1876,
      "Ġpower": 1877,
      "Ġfruit": 1878,
      "ĠInside": 1879,
      "Ġjourney": 1880,
      "Ġnaughty": 1881,
      "Ġcour": 1882,
      "ete": 1883,
      "Ġcoll": 1884,
      "Ġlaughing": 1885,
      "Ġretur": 1886,
      "ail": 1887,
      "pa": 1888,
      "round": 1889,
      "Ġbite": 1890,
      "Ġbask": 1891,
      "Ġstuck": 1892,
      "Ġupset": 1893,
      "Ġlife": 1894,
      "Ġdirty": 1895,
      "Ġbasket": 1896,
      "Ġgather": 1897,
      "Ġdance": 1898,
      "Ġboun": 1899,
      "Ġpen": 1900,
      "pper": 1901,
      "Ġsmart": 1902,
      "Ġwouldn": 1903,
      "ible": 1904,
      "Ġdist": 1905,
      "igg": 1906,
      "adow": 1907,
      "Ġnothing": 1908,
      "Ġmyster": 1909,
      "Ġdelight": 1910,
      "Ġcrying": 1911,
      "cing": 1912,
      "ho": 1913,
      "Ġdays": 1914,
      "Ġsmiling": 1915,
      "Ġspr": 1916,
      "Ġapple": 1917,
      "Ġshoes": 1918,
      "Ġjuice": 1919,
      "Ġcourse": 1920,
      "de": 1921,
      "ier": 1922,
      "Ġcou": 1923,
      "Ġpract": 1924,
      "irt": 1925,
      "Ġswam": 1926,
      "Ġcreature": 1927,
      "uched": 1928,
      "Ġtouched": 1929,
      "itch": 1930,
      "Ġdaughter": 1931,
      "Ġinst": 1932,
      "Ġeventually": 1933,
      "Ġlea": 1934,
      "epend": 1935,
      "Ġvill": 1936,
      "Ġpres": 1937,
      "Ġinc": 1938,
      "Ġwell": 1939,
      "ĠWith": 1940,
      "Ġsunny": 1941,
      "Ġadm": 1942,
      "ountain": 1943,
      "la": 1944,
      "Ġpot": 1945,
      "Ġbush": 1946,
      "Ġcray": 1947,
      "Ġminut": 1948,
      "OK": 1949,
      "ness": 1950,
      "Ġthin": 1951,
      "itting": 1952,
      "ĠTweet": 1953,
      "Ġimag": 1954,
      "Every": 1955,
      "Ġsign": 1956,
      "Ġwings": 1957,
      "Ġont": 1958,
      "Ġbusy": 1959,
      "ours": 1960,
      "Ġsearch": 1961,
      "Ġonto": 1962,
      "Ġgif": 1963,
      "Ġsol": 1964,
      "Ġplane": 1965,
      "Ġscream": 1966,
      "Ġbring": 1967,
      "Ġpath": 1968,
      "Ġspotted": 1969,
      "ĠJake": 1970,
      "Ġhuge": 1971,
      "Ġpeace": 1972,
      "Ġbelong": 1973,
      "rot": 1974,
      "ndpa": 1975,
      "Ġmark": 1976,
      "Ġgames": 1977,
      "Ġwhist": 1978,
      "Ġtrou": 1979,
      "Ġtasty": 1980,
      "Ġsinging": 1981,
      "Ġpushed": 1982,
      "ĠFluffy": 1983,
      "orrow": 1984,
      "Ġwants": 1985,
      "Ġspent": 1986,
      "Ġexplained": 1987,
      "Ġpull": 1988,
      "Ġdolls": 1989,
      "Ġsmooth": 1990,
      "Ġpresent": 1991,
      "cle": 1992,
      "Ġcir": 1993,
      "Ġsack": 1994,
      "Ġear": 1995,
      "Ġshining": 1996,
      "Ġpast": 1997,
      "Ġwatching": 1998,
      "Ġprincess": 1999,
      "Ġswimming": 2000,
      "ped": 2001,
      "rest": 2002,
      "Ġstars": 2003,
      "Ġkitten": 2004,
      "Ġmeet": 2005,
      "Ġsunsh": 2006,
      "Ġforever": 2007,
      "Tommy": 2008,
      "Ġstories": 2009,
      "Ġcraw": 2010,
      "Ġsunshine": 2011,
      "erest": 2012,
      "fish": 2013,
      "Ġsuc": 2014,
      "Ġsitting": 2015,
      "Ġbreat": 2016,
      "Ġfig": 2017,
      "Ġsang": 2018,
      "ont": 2019,
      "outh": 2020,
      "Ġpol": 2021,
      "Ġinterest": 2022,
      "Ġfront": 2023,
      "Ġbroke": 2024,
      "Okay": 2025,
      "ead": 2026,
      "ond": 2027,
      "Ġfit": 2028,
      "Ġrocks": 2029,
      "Ġbowl": 2030,
      "Ġclouds": 2031,
      "Ġneighbor": 2032,
      "Ġwelcome": 2033,
      "Sure": 2034,
      "Ġdry": 2035,
      "cked": 2036,
      "ĠJenny": 2037,
      "Ġcozy": 2038,
      "ĠPete": 2039,
      "Ġdanced": 2040,
      "Ġshapes": 2041,
      "Ġstreet": 2042,
      "bow": 2043,
      "Ġwin": 2044,
      "ang": 2045,
      "Ġyard": 2046,
      "Ġlift": 2047,
      "Ġwhich": 2048,
      "Ġrolled": 2049,
      "Ġowner": 2050,
      "Ġappeared": 2051,
      "Ġtasted": 2052,
      "Ġmonkey": 2053,
      "'d": 2054,
      "ass": 2055,
      "Ġ'": 2056,
      "Ġlate": 2057,
      "Ġlunch": 2058,
      "Ġbrown": 2059,
      "Ġwhole": 2060,
      "ize": 2061,
      "Ġplaces": 2062,
      "ocked": 2063,
      "Ġrainbow": 2064,
      "Ġhorse": 2065,
      "Mum": 2066,
      "og": 2067,
      "Ġsort": 2068,
      "alm": 2069,
      "Ġwondered": 2070,
      "Ġacc": 2071,
      "Ġdriver": 2072,
      "Ġarms": 2073,
      "Just": 2074,
      "Ġsur": 2075,
      "Ġmouth": 2076,
      "Ġeas": 2077,
      "Ġegg": 2078,
      "Ġforget": 2079,
      "Ġnoises": 2080,
      "Ġcarry": 2081,
      "Ġcorner": 2082,
      "ten": 2083,
      "Ġlar": 2084,
      "Ġround": 2085,
      "Ġshook": 2086,
      "Ġkey": 2087,
      "Ġasks": 2088,
      "ĠEmily": 2089,
      "Ġdrink": 2090,
      "Ġdropped": 2091,
      "Ġvillage": 2092,
      "Ġact": 2093,
      "Ġsug": 2094,
      "Ġwish": 2095,
      "read": 2096,
      "Ġmine": 2097,
      "Ġeag": 2098,
      "Ġresp": 2099,
      "Ġquest": 2100,
      "izz": 2101,
      "Ġsearched": 2102,
      "cer": 2103,
      "Ġfence": 2104,
      "ens": 2105,
      "Ġspicy": 2106,
      "Ġcarrot": 2107,
      "Ġfoot": 2108,
      "Ġchest": 2109,
      "thday": 2110,
      "fortable": 2111,
      "Ġbought": 2112,
      "ider": 2113,
      "Ġthrew": 2114,
      "Ġnet": 2115,
      "Ġspin": 2116,
      "Ġlovely": 2117,
      "Ġconfused": 2118,
      "Ġcollect": 2119,
      "Ġinteresting": 2120,
      "Ġlarge": 2121,
      "Jane": 2122,
      "ground": 2123,
      "ove": 2124,
      "llo": 2125,
      "Ġlem": 2126,
      "blem": 2127,
      "gest": 2128,
      "Ġmummy": 2129,
      "aur": 2130,
      "man": 2131,
      "Ġent": 2132,
      "Ġwild": 2133,
      "let": 2134,
      "Ġemb": 2135,
      "Ġshy": 2136,
      "Ġjun": 2137,
      "Ġspoon": 2138,
      "Ġchair": 2139,
      "Ġpass": 2140,
      "Ġjoke": 2141,
      "ĠCh": 2142,
      "Ġfarm": 2143,
      "Joe": 2144,
      "Ġmail": 2145,
      "ĠTogether": 2146,
      "board": 2147,
      "ĠGrandma": 2148,
      "Ġproblem": 2149,
      "gged": 2150,
      "obby": 2151,
      "Ġben": 2152,
      "ity": 2153,
      "Ġoce": 2154,
      "arra": 2155,
      "Ġleg": 2156,
      "oph": 2157,
      "ĠFinally": 2158,
      "Hey": 2159,
      "Ġhoped": 2160,
      "Ġembarra": 2161,
      "Ġocean": 2162,
      "Mama": 2163,
      "cor": 2164,
      "dle": 2165,
      "Ġign": 2166,
      "Ġap": 2167,
      "Ġmiss": 2168,
      "Ġgroup": 2169,
      "Ġbugs": 2170,
      "scap": 2171,
      "Ġanswer": 2172,
      "ancy": 2173,
      "Ġbottle": 2174,
      "den": 2175,
      "Ġaf": 2176,
      "Ġblew": 2177,
      "Ġpudd": 2178,
      "idge": 2179,
      "anut": 2180,
      "anch": 2181,
      "Ġkick": 2182,
      "Ġbutt": 2183,
      "Ġmeadow": 2184,
      "Ġbranch": 2185,
      "Ġtwins": 2186,
      "Ġpatient": 2187,
      "Ġcute": 2188,
      "Jimmy": 2189,
      "Ġteddy": 2190,
      "Ġletter": 2191,
      "Ġpile": 2192,
      "Ġbone": 2193,
      "Ġspo": 2194,
      "Ġbirthday": 2195,
      "Ġbedroom": 2196,
      "Ġtalking": 2197,
      "ult": 2198,
      "Ġpointed": 2199,
      "Of": 2200,
      "erly": 2201,
      "lex": 2202,
      "Ġwearing": 2203,
      "Ġshr": 2204,
      "Ġcarried": 2205,
      "usie": 2206,
      "Ġfold": 2207,
      "Ġhidden": 2208,
      "Ġsplas": 2209,
      "een": 2210,
      "gly": 2211,
      "old": 2212,
      "ose": 2213,
      "Ġbur": 2214,
      "Ġhours": 2215,
      "ident": 2216,
      "Ġugly": 2217,
      "Ġforward": 2218,
      "ugg": 2219,
      "Ġexcite": 2220,
      "Ġholding": 2221,
      "Ġmysterious": 2222,
      "Ġfigure": 2223,
      "Now": 2224,
      "ps": 2225,
      "Ġtun": 2226,
      "Ġmis": 2227,
      "Ġstood": 2228,
      "amed": 2229,
      "ĠMaybe": 2230,
      "Ġspe": 2231,
      "Ġhelpful": 2232,
      "Ġroll": 2233,
      "Ġbubble": 2234,
      "ĠEverywhere": 2235,
      "Ġwrite": 2236,
      "eterm": 2237,
      "Ġhealthy": 2238,
      "Ġinstead": 2239,
      "Ġjungle": 2240,
      "Ġexcitement": 2241,
      "Come": 2242,
      "In": 2243,
      "nic": 2244,
      "Ġdeterm": 2245,
      "Ġpill": 2246,
      "Ġpool": 2247,
      "rill": 2248,
      "Ġfeet": 2249,
      "Ġpicnic": 2250,
      "Ġzoom": 2251,
      "Ġdrive": 2252,
      "Ġperson": 2253,
      "Ġembarrassed": 2254,
      "Ġlucky": 2255,
      "Ġmot": 2256,
      "ĠSt": 2257,
      "owed": 2258,
      "Ġplayground": 2259,
      "Ġasleep": 2260,
      "ĠMum": 2261,
      "ĠJen": 2262,
      "Ġjar": 2263,
      "Ġorgan": 2264,
      "Ġpuzz": 2265,
      "Ġclever": 2266,
      "Ġremind": 2267,
      "Ġthinks": 2268,
      "Ġreturned": 2269,
      "Ġgift": 2270,
      "Good": 2271,
      "Ġant": 2272,
      "Ġlay": 2273,
      "Ġwash": 2274,
      "Ġph": 2275,
      "Ġrope": 2276,
      "Ġkiss": 2277,
      "Ġang": 2278,
      "raid": 2279,
      "Ġspider": 2280,
      "Ġteach": 2281,
      "Ġimpre": 2282,
      "Ġmatter": 2283,
      "Ġcolourful": 2284,
      "Ġstanding": 2285,
      "Ġlemon": 2286,
      "My": 2287,
      "Mummy": 2288,
      "ian": 2289,
      "Ġsne": 2290,
      "Ġfancy": 2291,
      "Ġlit": 2292,
      "Ġinv": 2293,
      "Ġswings": 2294,
      "ĠCome": 2295,
      "Ġsounds": 2296,
      "ĠKitty": 2297,
      "Ġafraid": 2298,
      "col": 2299,
      "Ġhello": 2300,
      "Ġescap": 2301,
      "?\".": 2302,
      "ular": 2303,
      "Ġturns": 2304,
      "Ġgathered": 2305,
      "Later": 2306,
      "Ġcow": 2307,
      "Ġdi": 2308,
      "Ġmad": 2309,
      "Ġmind": 2310,
      "Ġsailed": 2311,
      "ighed": 2312,
      "Ġmud": 2313,
      "Ġlast": 2314,
      "ĠFred": 2315,
      "ĠSammy": 2316,
      "Ġgrew": 2317,
      "Ġtalked": 2318,
      "Ġsandw": 2319,
      "Sarah": 2320,
      "Ġbuilding": 2321,
      "To": 2322,
      "aking": 2323,
      "Ġser": 2324,
      "Ġwave": 2325,
      "Ġlater": 2326,
      "iddle": 2327,
      "Ġstir": 2328,
      "Ġnest": 2329,
      "ĠEven": 2330,
      "Ġlaw": 2331,
      "Ġprot": 2332,
      "Ġthrow": 2333,
      "Ġhope": 2334,
      "Ġsmelled": 2335,
      "Ġwhenever": 2336,
      "Ġminutes": 2337,
      "Ġangel": 2338,
      "hile": 2339,
      "ual": 2340,
      "Ġwander": 2341,
      "ert": 2342,
      "Ġmist": 2343,
      "Ġpar": 2344,
      "Ġstep": 2345,
      "Ġshirt": 2346,
      "ĠJust": 2347,
      "Ġrob": 2348,
      "Ġseek": 2349,
      "Ġflut": 2350,
      "Ġtightly": 2351,
      "Ġsparkly": 2352,
      "Ġfurry": 2353,
      "Ġbreath": 2354,
      "Ġmotor": 2355,
      "ale": 2356,
      "Ġsour": 2357,
      "Ġple": 2358,
      "Ġgigg": 2359,
      "ilk": 2360,
      "vel": 2361,
      "Ġval": 2362,
      "Ġbecome": 2363,
      "Ġblow": 2364,
      "Ġpeanut": 2365,
      "Ġhopping": 2366,
      "Soon": 2367,
      "Ġgently": 2368,
      "Ġaccident": 2369,
      "Ġprotect": 2370,
      "Ġrobot": 2371,
      "Ġtig": 2372,
      "Ġsick": 2373,
      "Ġwra": 2374,
      "Ġber": 2375,
      "Ġfing": 2376,
      "Ġcalm": 2377,
      "Ġmilk": 2378,
      "Ġexp": 2379,
      "Ġexam": 2380,
      "ĠEnd": 2381,
      "ÅĵLet": 2382,
      "Ġanyone": 2383,
      "Ġcheer": 2384,
      "ĠTweety": 2385,
      "Ġpeaceful": 2386,
      "Ġdetermined": 2387,
      "Mia": 2388,
      "sist": 2389,
      "unt": 2390,
      "Ġsel": 2391,
      "Ġmed": 2392,
      "Ġbell": 2393,
      "Ġash": 2394,
      "Ġgoat": 2395,
      "Ġgrab": 2396,
      "Ġstorm": 2397,
      "Ġwaiting": 2398,
      "Ġyelled": 2399,
      "Ġsmelly": 2400,
      "Ġtrip": 2401,
      "hin": 2402,
      "Ġwip": 2403,
      "ating": 2404,
      "ird": 2405,
      "Ġnut": 2406,
      "cept": 2407,
      "oose": 2408,
      "Ġweek": 2409,
      "Ġneck": 2410,
      "alous": 2411,
      "urry": 2412,
      "Ġnose": 2413,
      "getable": 2414,
      "Ġmatch": 2415,
      "Ġanswered": 2416,
      "Ġjealous": 2417,
      "ependable": 2418,
      "Ġtrouble": 2419,
      "Ġpuddle": 2420,
      "St": 2421,
      "ball": 2422,
      "ey": 2423,
      "Ġtear": 2424,
      "Ġwide": 2425,
      "Ġcoo": 2426,
      "Ġstar": 2427,
      "ĠBe": 2428,
      "Ġasking": 2429,
      "Ġjumping": 2430,
      "Ġtower": 2431,
      "Ġvegetable": 2432,
      "Ġgiant": 2433,
      "Ġdisappeared": 2434,
      "Ġcouch": 2435,
      "Ġsuccess": 2436,
      "Ġhit": 2437,
      "ener": 2438,
      "Ġsaf": 2439,
      "eth": 2440,
      "Ġseat": 2441,
      "Ġcoin": 2442,
      "Ġmoon": 2443,
      "Ġcomes": 2444,
      "Ġfinish": 2445,
      "Ġtreats": 2446,
      "Ġmistake": 2447,
      "Amy": 2448,
      "Where": 2449,
      "ĠOn": 2450,
      "Ġtom": 2451,
      "Ġmountain": 2452,
      "Ġmiddle": 2453,
      "Ġgas": 2454,
      "ĠSandy": 2455,
      "ĠTV": 2456,
      "Ġshore": 2457,
      "ĠJim": 2458,
      "umber": 2459,
      "elly": 2460,
      "Ġbull": 2461,
      "Ġfeels": 2462,
      "Ġselfish": 2463,
      "Lila": 2464,
      "light": 2465,
      "pill": 2466,
      "vous": 2467,
      "Ġband": 2468,
      "Ġwagon": 2469,
      "erpill": 2470,
      "ĠBobby": 2471,
      "ĠMummy": 2472,
      "Ġnod": 2473,
      "ife": 2474,
      "Ġchick": 2475,
      "Ġcaterpill": 2476,
      "Ġruns": 2477,
      "Ġdancing": 2478,
      "Ġhiding": 2479,
      "ĠThank": 2480,
      "Ġthankful": 2481,
      "Ġsplash": 2482,
      "ĠMrs": 2483,
      "Ġscreamed": 2484,
      "Ġwhistle": 2485,
      "Ġrespect": 2486,
      "Gra": 2487,
      "Sally": 2488,
      "Ġwom": 2489,
      "Ġthese": 2490,
      "inted": 2491,
      "Ġlad": 2492,
      "Ġpizz": 2493,
      "Ġgener": 2494,
      "anny": 2495,
      "ese": 2496,
      "ĠMar": 2497,
      "Ġpaw": 2498,
      "Ġtrue": 2499,
      "Ġknowing": 2500,
      "ĠJohnny": 2501,
      "Ġrealised": 2502,
      "Ġrocket": 2503,
      "Ġclass": 2504,
      "Ġcreative": 2505,
      "Ġpromise": 2506,
      "Ġcaterpillar": 2507,
      "Ġwoman": 2508,
      "Please": 2509,
      "bin": 2510,
      "rated": 2511,
      "Ġsil": 2512,
      "Ġsoup": 2513,
      "Ġcard": 2514,
      "isa": 2515,
      "irp": 2516,
      "ured": 2517,
      "ĠAn": 2518,
      "Ġchased": 2519,
      "Ġhugs": 2520,
      "Ġpolice": 2521,
      "izzy": 2522,
      "ctus": 2523,
      "Ġsleepy": 2524,
      "Ġcrayons": 2525,
      "Ġladder": 2526,
      "Ġgenerous": 2527,
      "Em": 2528,
      "com": 2529,
      "eb": 2530,
      "ying": 2531,
      "Ġtid": 2532,
      "Ġtag": 2533,
      "Ġdependable": 2534,
      "Ġgar": 2535,
      "There": 2536,
      "Ġsave": 2537,
      "ors": 2538,
      "Ġner": 2539,
      "Ġweak": 2540,
      "Ġrecor": 2541,
      "Ġcactus": 2542,
      "Ġbrush": 2543,
      "Ġtaken": 2544,
      "Ġskipped": 2545,
      "usual": 2546,
      "ĠPeter": 2547,
      "Ġtest": 2548,
      "Ġunusual": 2549,
      "Ġapples": 2550,
      "Ġpush": 2551,
      "Ġdisappo": 2552,
      "Ġcirc": 2553,
      "cient": 2554,
      "land": 2555,
      "uce": 2556,
      "wel": 2557,
      "Ġter": 2558,
      "Ġtrave": 2559,
      "orn": 2560,
      "Ġem": 2561,
      "Ġking": 2562,
      "Ġancient": 2563,
      "Ġlead": 2564,
      "Ġfeather": 2565,
      "Ġmanag": 2566,
      "Ġmeasure": 2567,
      "ÅĵIt": 2568,
      "Ġtrust": 2569,
      "umpy": 2570,
      "apa": 2571,
      "ache": 2572,
      "Ġsongs": 2573,
      "Ġdesk": 2574,
      "Ġpowerful": 2575,
      "Ġnervous": 2576,
      "Dad": 2577,
      "ipp": 2578,
      "iant": 2579,
      "Ġbal": 2580,
      "Ġbrill": 2581,
      "ĠSome": 2582,
      "Ġshell": 2583,
      "Ġstret": 2584,
      "oof": 2585,
      "keep": 2586,
      "als": 2587,
      "umsy": 2588,
      "Ġcovered": 2589,
      "Ġknee": 2590,
      "Ġcheese": 2591,
      "Ġtaste": 2592,
      "Ġsupp": 2593,
      "Ġjewel": 2594,
      "Ġtiger": 2595,
      "Ġvegetables": 2596,
      "Ġpizza": 2597,
      "Ġterri": 2598,
      "Ġbrilliant": 2599,
      "keeper": 2600,
      "Ġadd": 2601,
      "ination": 2602,
      "Ġbra": 2603,
      "Ġhel": 2604,
      "Ġmach": 2605,
      "ĠSomet": 2606,
      "ĠSusie": 2607,
      "ork": 2608,
      "Ġoften": 2609,
      "urse": 2610,
      "Ġclay": 2611,
      "ustrated": 2612,
      "ÅĵThat": 2613,
      "Ġplants": 2614,
      "umbled": 2615,
      "Ġrelax": 2616,
      "Ġphone": 2617,
      "Ġempt": 2618,
      "gy": 2619,
      "mo": 2620,
      "up": 2621,
      "Ġfather": 2622,
      "Ġgem": 2623,
      "Ġreg": 2624,
      "Ġext": 2625,
      "ĠAlice": 2626,
      "Ġones": 2627,
      "Ġtwirl": 2628,
      "Ġchew": 2629,
      "ĠAndy": 2630,
      "Ġstronger": 2631,
      "Ġcrack": 2632,
      "Ġunderstood": 2633,
      "Ġpretended": 2634,
      "Ġstudy": 2635,
      "Ġsnacks": 2636,
      "Ġmarket": 2637,
      "Ġbench": 2638,
      "ÅĵLetÃ¢": 2639,
      "Ġgarage": 2640,
      "Ġdisappointed": 2641,
      "Ġempty": 2642,
      "Alice": 2643,
      "Mary": 2644,
      "ub": 2645,
      "Ġed": 2646,
      "edient": 2647,
      "Ġhoney": 2648,
      "Ġsaved": 2649,
      "imp": 2650,
      "Ġsock": 2651,
      "Ġonce": 2652,
      "ĠBr": 2653,
      "Ġisland": 2654,
      "ella": 2655,
      "Ġvi": 2656,
      "Ġmod": 2657,
      "ushed": 2658,
      "Ġfrustrated": 2659,
      "Ġdead": 2660,
      "Ġbrightly": 2661,
      "ola": 2662,
      "Ġfixed": 2663,
      "Ġescape": 2664,
      "Well": 2665,
      "nie": 2666,
      "year": 2667,
      "Ġsight": 2668,
      "Ġwis": 2669,
      "Ġoven": 2670,
      "ana": 2671,
      "Ġstuff": 2672,
      "Ġring": 2673,
      "Ġshake": 2674,
      "Ġspread": 2675,
      "Ġarrow": 2676,
      "icine": 2677,
      "Ġroad": 2678,
      "ÅĵYes": 2679,
      "Ġcalling": 2680,
      "Ġteam": 2681,
      "Ġmessy": 2682,
      "airs": 2683,
      "Ġducks": 2684,
      "ittens": 2685,
      "Ġdirt": 2686,
      "Ġobedient": 2687,
      "Ġdistance": 2688,
      "Ġdelighted": 2689,
      "Ġsolve": 2690,
      "Ġeasy": 2691,
      "Ġgiggled": 2692,
      "Ġmedicine": 2693,
      "Ġtomorrow": 2694,
      "Ġrecord": 2695,
      "Ġmanaged": 2696,
      "most": 2697,
      "Ġtick": 2698,
      "Ġtask": 2699,
      "Ġaw": 2700,
      "Ġcomet": 2701,
      "Ġpin": 2702,
      "Ġpenny": 2703,
      "orge": 2704,
      "ĠLittle": 2705,
      "Ġwhis": 2706,
      "Ġgold": 2707,
      "Ġcabin": 2708,
      "Ġalmost": 2709,
      "Ġmeant": 2710,
      "Ġdecor": 2711,
      "ĠDon": 2712,
      "Ġtakes": 2713,
      "Ġtaught": 2714,
      "Ġpassed": 2715,
      "Ġslid": 2716,
      "iable": 2717,
      "Ġloves": 2718,
      "Ġfrown": 2719,
      "Ġdest": 2720,
      "Ġcontent": 2721,
      "box": 2722,
      "Ġchocol": 2723,
      "Ġreliable": 2724,
      "Ġincred": 2725,
      "Ġpuzzle": 2726,
      "Ġimpressed": 2727,
      "Ġextra": 2728,
      "Billy": 2729,
      "cy": 2730,
      "work": 2731,
      "henever": 2732,
      "Ġadded": 2733,
      "Ġfil": 2734,
      "Ġok": 2735,
      "ately": 2736,
      "Ġhang": 2737,
      "ĠTheir": 2738,
      "Ġshelf": 2739,
      "Ġstream": 2740,
      "uring": 2741,
      "Ġfear": 2742,
      "Ġknocked": 2743,
      "Ġgrand": 2744,
      "Ġmoving": 2745,
      "Ġord": 2746,
      "Ġturkey": 2747,
      "Ġbald": 2748,
      "Ġwheel": 2749,
      "Ġgiving": 2750,
      "Ġhappening": 2751,
      "Ġdiscovered": 2752,
      "Ġleaf": 2753,
      "ophie": 2754,
      "Be": 2755,
      "ject": 2756,
      "uz": 2757,
      "ĠO": 2758,
      "Ġicy": 2759,
      "Ġtie": 2760,
      "Ġav": 2761,
      "Ġsighed": 2762,
      "ina": 2763,
      "ready": 2764,
      "Ġpop": 2765,
      "Ġrid": 2766,
      "itter": 2767,
      "ention": 2768,
      "unk": 2769,
      "Ġliz": 2770,
      "Ġdolp": 2771,
      "Ġboard": 2772,
      "Ġlock": 2773,
      "Ġspend": 2774,
      "urous": 2775,
      "Ġalready": 2776,
      "Ġscr": 2777,
      "Ġfluffy": 2778,
      "Ġyourself": 2779,
      "Ġpicking": 2780,
      "Ġadventurous": 2781,
      "Ġaccept": 2782,
      "Ġcrown": 2783,
      "Ġfavour": 2784,
      "Ġcookie": 2785,
      "Ġstones": 2786,
      "Ġcelebrate": 2787,
      "Ġquestions": 2788,
      "Ġsnee": 2789,
      "Ġaccidentally": 2790,
      "Ġline": 2791,
      "arp": 2792,
      "ats": 2793,
      "Ġstra": 2794,
      "Ġyog": 2795,
      "Ġship": 2796,
      "Ġsharp": 2797,
      "Ġlive": 2798,
      "opus": 2799,
      "ĠWhenever": 2800,
      "Ġexcitedly": 2801,
      "Ġraven": 2802,
      "ctopus": 2803,
      "ĠPolly": 2804,
      "Ġclear": 2805,
      "Ġmaze": 2806,
      "Ġguard": 2807,
      "Ġeager": 2808,
      "Ġsplashed": 2809,
      "Ġpleased": 2810,
      "Ġtidy": 2811,
      "Ġterrible": 2812,
      "Ġchocolate": 2813,
      "Ġincredible": 2814,
      "Ġfavourite": 2815,
      "Sue": 2816,
      "une": 2817,
      "reen": 2818,
      "Ġcher": 2819,
      "Ġdizzy": 2820,
      "Ġpir": 2821,
      "Ġoctopus": 2822,
      "lla": 2823,
      "imed": 2824,
      "ĠSm": 2825,
      "Ġlog": 2826,
      "ĠAt": 2827,
      "Ġclumsy": 2828,
      "asing": 2829,
      "Ġabove": 2830,
      "Ġpoor": 2831,
      "Ġgray": 2832,
      "ÅĵWhat": 2833,
      "Ġcomfortable": 2834,
      "ĠPapa": 2835,
      "Ġdinos": 2836,
      "body": 2837,
      "ĠGrace": 2838,
      "Ġbarber": 2839,
      "Ġlanded": 2840,
      "Ġcrawled": 2841,
      "Ġpolite": 2842,
      "Ġsorts": 2843,
      "aby": 2844,
      "eorge": 2845,
      "port": 2846,
      "wards": 2847,
      "Ġind": 2848,
      "Ġwore": 2849,
      "Ġtoug": 2850,
      "Ġhive": 2851,
      "Ġpri": 2852,
      "ature": 2853,
      "anged": 2854,
      "Ġstumbled": 2855,
      "Ġplate": 2856,
      "!\".": 2857,
      "Ġseed": 2858,
      "ĠWhy": 2859,
      "Ġchar": 2860,
      "Ġgrace": 2861,
      "Ġgrumpy": 2862,
      "Ġtape": 2863,
      "Ġskip": 2864,
      "Ġjog": 2865,
      "Ġfridge": 2866,
      "Ġfaces": 2867,
      "Ġwalks": 2868,
      "Ġsticks": 2869,
      "berry": 2870,
      "Ġmarch": 2871,
      "Ġbutton": 2872,
      "Ġsandwich": 2873,
      "Ġviol": 2874,
      "Ġdinosaur": 2875,
      "ever": 2876,
      "pack": 2877,
      "und": 2878,
      "zed": 2879,
      "Ġer": 2880,
      "Ġfis": 2881,
      "Ġmic": 2882,
      "Ġpour": 2883,
      "ory": 2884,
      "ĠHow": 2885,
      "ilt": 2886,
      "Ġnumber": 2887,
      "Ġrich": 2888,
      "ĠLe": 2889,
      "Ġshone": 2890,
      "Ġsharing": 2891,
      "Ġrefused": 2892,
      "Ġload": 2893,
      "Ġjam": 2894,
      "Ġlazy": 2895,
      "ecially": 2896,
      "Ġexplored": 2897,
      "ĠdonÃ¢": 2898,
      "Ġsquare": 2899,
      "Ġsounded": 2900,
      "Ġusing": 2901,
      "specially": 2902,
      "Ġdiscover": 2903,
      "Ġpillow": 2904,
      "Ġlizard": 2905,
      "Ġdolphin": 2906,
      "Ġviolin": 2907,
      "iness": 2908,
      "Ġboring": 2909,
      "Ġwaves": 2910,
      "Ġlying": 2911,
      "Ġeld": 2912,
      "Ġespecially": 2913,
      "ote": 2914,
      "ĠTeddy": 2915,
      "ĠLisa": 2916,
      "ĠBl": 2917,
      "Ġkitty": 2918,
      "Ġjelly": 2919,
      "ĠAlex": 2920,
      "Ġfeed": 2921,
      "aser": 2922,
      "Ġtwist": 2923,
      "Ġcheck": 2924,
      "Ġkinds": 2925,
      "Ġeye": 2926,
      "ĠRe": 2927,
      "Ġdelicate": 2928,
      "Ġdrum": 2929,
      "ĠToday": 2930,
      "ĠGrandpa": 2931,
      "Ġmighty": 2932,
      "Ġbarked": 2933,
      "Ġfighting": 2934,
      "Ġpersist": 2935,
      "Ġpacked": 2936,
      "Ġharm": 2937,
      "Ġsearching": 2938,
      "Ġcircles": 2939,
      "Ġedge": 2940,
      "ĠSmith": 2941,
      "How": 2942,
      "live": 2943,
      "lies": 2944,
      "time": 2945,
      "Ġsy": 2946,
      "Ġthose": 2947,
      "Ġroof": 2948,
      "Ġkay": 2949,
      "Ġbody": 2950,
      "Ġspace": 2951,
      "Ġsell": 2952,
      "Ġexcla": 2953,
      "ĠEventually": 2954,
      "Ġskin": 2955,
      "Ġshowing": 2956,
      "ĠCl": 2957,
      "Ġsquee": 2958,
      "Ġpainting": 2959,
      "Ġpainted": 2960,
      "Ġprint": 2961,
      "Ġwalls": 2962,
      "Ġchose": 2963,
      "Ġfinger": 2964,
      "Ġashamed": 2965,
      "ĠSometimes": 2966,
      "Ġexclaimed": 2967,
      "Jill": 2968,
      "fic": 2969,
      "ha": 2970,
      "ipper": 2971,
      "Ġhum": 2972,
      "era": 2973,
      "Ġcart": 2974,
      "Ġcross": 2975,
      "Ġcush": 2976,
      "enry": 2977,
      "Ġbees": 2978,
      "Ġrough": 2979,
      "Ġcloth": 2980,
      "Ġleash": 2981,
      "onest": 2982,
      "Ġworking": 2983,
      "iff": 2984,
      "Ġsaying": 2985,
      "Ġdogs": 2986,
      "Ġqueen": 2987,
      "Ġstring": 2988,
      "selves": 2989,
      "âĤ¬âĢ": 2990,
      "Ġraced": 2991,
      "Ġglow": 2992,
      "Ġwrote": 2993,
      "Ġperform": 2994,
      "Ġrude": 2995,
      "Ġzoo": 2996,
      "Ġforgive": 2997,
      "Ġtrick": 2998,
      "Ġpointing": 2999,
      "osie": 3000,
      "Ġpractice": 3001,
      "Ġbelonged": 3002,
      "Ġtears": 3003,
      "Ġtough": 3004,
      "Who": 3005,
      "aw": 3006,
      "rank": 3007,
      "uable": 3008,
      "yal": 3009,
      "head": 3010,
      "Ġtimes": 3011,
      "render": 3012,
      "Ġcamp": 3013,
      "Ġmama": 3014,
      "nel": 3015,
      "anger": 3016,
      "orant": 3017,
      "Ġthick": 3018,
      "Ġears": 3019,
      "Ġrushed": 3020,
      "adi": 3021,
      "rage": 3022,
      "Ġotter": 3023,
      "ipe": 3024,
      "Ġsnake": 3025,
      "ĠNo": 3026,
      "Ġgives": 3027,
      "Ġdiffic": 3028,
      "Ġsett": 3029,
      "Ġdrank": 3030,
      "ĠToby": 3031,
      "Ġneighbour": 3032,
      "Ġspray": 3033,
      "Ġleaving": 3034,
      "Ġsuggest": 3035,
      "ensive": 3036,
      "Ġserious": 3037,
      "Ġexpensive": 3038,
      "Ġeraser": 3039,
      "Ġpersistent": 3040,
      "Ġwitch": 3041,
      "Ġwake": 3042,
      "Ġhipp": 3043,
      "Ġhonest": 3044,
      "Ġfool": 3045,
      "Ġdish": 3046,
      "Ġdull": 3047,
      "Ġpay": 3048,
      "Ġitself": 3049,
      "ilty": 3050,
      "aled": 3051,
      "Ġloyal": 3052,
      "ages": 3053,
      "Ġchain": 3054,
      "Ġpear": 3055,
      "Ġglue": 3056,
      "Ġloudly": 3057,
      "Ġtrucks": 3058,
      "Ġuseful": 3059,
      "Ġruined": 3060,
      "Ġcrab": 3061,
      "Ġprince": 3062,
      "Ġguilty": 3063,
      "Ġshopkeeper": 3064,
      "Ġbottom": 3065,
      "Ġbushes": 3066,
      "Ġcrayon": 3067,
      "Ġimagined": 3068,
      "Ġsurrender": 3069,
      "Ġvaluable": 3070,
      "Ġnuts": 3071,
      "Ġsuccessful": 3072,
      "Ġsafely": 3073,
      "Ġpirate": 3074,
      "Ġdifficult": 3075,
      "Ġfoolish": 3076,
      "Me": 3077,
      "can": 3078,
      "ipping": 3079,
      "loo": 3080,
      "ath": 3081,
      "Ġplayer": 3082,
      "illie": 3083,
      "Ġseem": 3084,
      "Ġcoat": 3085,
      "Ġpray": 3086,
      "Ġgrown": 3087,
      "Ġlearning": 3088,
      "Ġpup": 3089,
      "Ġkindness": 3090,
      "Ġtea": 3091,
      "Ġenjoying": 3092,
      "Ġrubb": 3093,
      "Ġmarble": 3094,
      "Ġmixed": 3095,
      "Ġsugar": 3096,
      "Ġignorant": 3097,
      "Ġtunnel": 3098,
      "Ġbubbles": 3099,
      "Ġflute": 3100,
      "Ġelderly": 3101,
      "Ġhippo": 3102,
      "lower": 3103,
      "Ġtent": 3104,
      "Ġtank": 3105,
      "Ġbored": 3106,
      "Ġfountain": 3107,
      "Ġpurse": 3108,
      "Ġfork": 3109,
      "Ġwhale": 3110,
      "Ġreve": 3111,
      "Ġnosy": 3112,
      "iest": 3113,
      "Ġbranc": 3114,
      "Ġknife": 3115,
      "Ġbloom": 3116,
      "Ġsmaller": 3117,
      "ĠPlease": 3118,
      "urtle": 3119,
      "Ġwarned": 3120,
      "Ġdeer": 3121,
      "Ġtowel": 3122,
      "ĠRosie": 3123,
      "Ġcompass": 3124,
      "Ġjuicy": 3125,
      "Ġbathroom": 3126,
      "Ġthinking": 3127,
      "Ġregular": 3128,
      "Ġkayak": 3129,
      "Ġbranches": 3130,
      "dge": 3131,
      "ffe": 3132,
      "iqu": 3133,
      "kin": 3134,
      "yer": 3135,
      "Ġturtle": 3136,
      "Ġborrow": 3137,
      "Ġhurry": 3138,
      "Ġmay": 3139,
      "Ġmap": 3140,
      "Ġgun": 3141,
      "ĠSophie": 3142,
      "ony": 3143,
      "Ġsoap": 3144,
      "Ġweird": 3145,
      "rag": 3146,
      "Ġgoes": 3147,
      "Ġcage": 3148,
      "Ġflash": 3149,
      "Ġgrandpa": 3150,
      "Ġeng": 3151,
      "Ġmov": 3152,
      "Ġstranger": 3153,
      "Ġbeauty": 3154,
      "ĠGo": 3155,
      "Ġuniqu": 3156,
      "Ġrub": 3157,
      "Ġdrawing": 3158,
      "mbol": 3159,
      "Ġshape": 3160,
      "Ġobject": 3161,
      "Ġsailor": 3162,
      "Ġpackage": 3163,
      "Ġbounce": 3164,
      "Ġcourage": 3165,
      "Ġspeed": 3166,
      "Ġparade": 3167,
      "Stop": 3168,
      "Ġcharming": 3169,
      "Ġsymbol": 3170,
      "Ġunique": 3171,
      "heart": 3172,
      "Ġtut": 3173,
      "inal": 3174,
      "Ġbitter": 3175,
      "Ġwand": 3176,
      "Ġcurt": 3177,
      "Ġham": 3178,
      "anic": 3179,
      "iginal": 3180,
      "Ġboss": 3181,
      "ĠJames": 3182,
      "ĠAl": 3183,
      "Ġboys": 3184,
      "Ġvase": 3185,
      "Ġbuilt": 3186,
      "bborn": 3187,
      "Ġpole": 3188,
      "Ġpee": 3189,
      "Ġquite": 3190,
      "Ġtrunk": 3191,
      "Ġoffered": 3192,
      "Ġoriginal": 3193,
      "Ġways": 3194,
      "Ġframe": 3195,
      "Ġmetal": 3196,
      "Ġcandle": 3197,
      "Ġstubborn": 3198,
      "Ġadmired": 3199,
      "Ġlegs": 3200,
      "Ġmissed": 3201,
      "Ġreminded": 3202,
      "Ġinvited": 3203,
      "Ġlawyer": 3204,
      "Ġcheerful": 3205,
      "Ġgasped": 3206,
      "Ġmachine": 3207,
      "Ġcurtain": 3208,
      "Little": 3209,
      "ches": 3210,
      "not": 3211,
      "ubby": 3212,
      "vice": 3213,
      "Ġsudden": 3214,
      "ital": 3215,
      "Ġgho": 3216,
      "Their": 3217,
      "ora": 3218,
      "etit": 3219,
      "irit": 3220,
      "Ġrice": 3221,
      "chie": 3222,
      "Ġbiggest": 3223,
      "ĠMittens": 3224,
      "Ġchubby": 3225,
      "ĠEverything": 3226,
      "Ġclock": 3227,
      "Ġoffice": 3228,
      "Ġraft": 3229,
      "Ġwolf": 3230,
      "Ġboxes": 3231,
      "Ġdrew": 3232,
      "Ġpainter": 3233,
      "olog": 3234,
      "aced": 3235,
      "Ġsweetheart": 3236,
      "Ġrubbed": 3237,
      "Ġtelling": 3238,
      "Ġcompetit": 3239,
      "Ġbelt": 3240,
      "Ġsmoke": 3241,
      "Ġfruits": 3242,
      "Ġadmire": 3243,
      "Ġtravel": 3244,
      "achel": 3245,
      "uzzy": 3246,
      "Ġsuggested": 3247,
      "Ġtutor": 3248,
      "Ġghost": 3249,
      "See": 3250,
      "bled": 3251,
      "cil": 3252,
      "lace": 3253,
      "Ġtummy": 3254,
      "ines": 3255,
      "Ġhears": 3256,
      "Ġcone": 3257,
      "Ġmir": 3258,
      "Ġpit": 3259,
      "Ġoy": 3260,
      "angle": 3261,
      "Ġrep": 3262,
      "Ġresc": 3263,
      "Ġrepe": 3264,
      "icop": 3265,
      "Ġcannot": 3266,
      "Ġnoisy": 3267,
      "Ġmeas": 3268,
      "Ġroar": 3269,
      "Ġrode": 3270,
      "ĠWhile": 3271,
      "Ġlaund": 3272,
      "Ġagainst": 3273,
      "Ġputs": 3274,
      "bbie": 3275,
      "Ġknob": 3276,
      "Ġhosp": 3277,
      "Ġtwig": 3278,
      "ĠcouldnÃ¢": 3279,
      "Ġproudly": 3280,
      "sely": 3281,
      "Ġfamous": 3282,
      "Ġuncom": 3283,
      "Ġprep": 3284,
      "Ġsecond": 3285,
      "Ġcomput": 3286,
      "Ġdoesn": 3287,
      "oomy": 3288,
      "Ġsub": 3289,
      "Ġpencil": 3290,
      "ependent": 3291,
      "Ġcircle": 3292,
      "Ġlifted": 3293,
      "Ġapolog": 3294,
      "uggled": 3295,
      "Ġorganized": 3296,
      "Ġberries": 3297,
      "Ġnecklace": 3298,
      "Ġhelicop": 3299,
      "Ġindependent": 3300,
      "ĠBlue": 3301,
      "cano": 3302,
      "Ġcompassion": 3303,
      "Ġengine": 3304,
      "Ġlaundry": 3305,
      "Ġhospital": 3306,
      "Ġuncomfortable": 3307,
      "Ġhelicopter": 3308,
      "cu": 3309,
      "ext": 3310,
      "hood": 3311,
      "ror": 3312,
      "vet": 3313,
      "Ġahead": 3314,
      "ince": 3315,
      "inary": 3316,
      "Ġwagged": 3317,
      "Ġfu": 3318,
      "Ġlamp": 3319,
      "Ġcri": 3320,
      "Ġmaybe": 3321,
      "ison": 3322,
      "issed": 3323,
      "Ġsauce": 3324,
      "iron": 3325,
      "oop": 3326,
      "amond": 3327,
      "elp": 3328,
      "ents": 3329,
      "Ġshut": 3330,
      "Ġshark": 3331,
      "Ġref": 3332,
      "acket": 3333,
      "Ġexper": 3334,
      "Ġlocked": 3335,
      "Ġjet": 3336,
      "Ġtool": 3337,
      "âĤ¬.": 3338,
      "Ġlean": 3339,
      "Ġalert": 3340,
      "Ġmeal": 3341,
      "ĠElly": 3342,
      "Ġknight": 3343,
      "Ġpeek": 3344,
      "Ġtrop": 3345,
      "Ġclosely": 3346,
      "Ġadvice": 3347,
      "Ġcompl": 3348,
      "Ġneeds": 3349,
      "Ġteeth": 3350,
      "Ġglass": 3351,
      "Ġunk": 3352,
      "Ġsniff": 3353,
      "Ġpatch": 3354,
      "Ġlights": 3355,
      "Ġsparkled": 3356,
      "Ġbarn": 3357,
      "Ġdiamond": 3358,
      "Ġwiped": 3359,
      "ĠBrown": 3360,
      "Ġpeeked": 3361,
      "Ġoyster": 3362,
      "Help": 3363,
      "bor": 3364,
      "iv": 3365,
      "nit": 3366,
      "Ġsna": 3367,
      "erce": 3368,
      "ision": 3369,
      "ĠitÃ¢": 3370,
      "ots": 3371,
      "ĠIf": 3372,
      "Ġhadn": 3373,
      "ĠTed": 3374,
      "Ġresist": 3375,
      "ĠBet": 3376,
      "Ġkissed": 3377,
      "ĠMark": 3378,
      "Ġjacket": 3379,
      "Ġspun": 3380,
      "Ġspirit": 3381,
      "Ġleak": 3382,
      "Ġmem": 3383,
      "Ġrose": 3384,
      "Ġgets": 3385,
      "Ġsadly": 3386,
      "Ġfinding": 3387,
      "Ġpoppy": 3388,
      "ÅĵYou": 3389,
      "Ġmole": 3390,
      "Ġmoder": 3391,
      "Ġslipped": 3392,
      "Ġending": 3393,
      "Ġfierce": 3394,
      "Ġimpat": 3395,
      "ĠJoey": 3396,
      "Ġbutterflies": 3397,
      "Ġdreaming": 3398,
      "Ġhairy": 3399,
      "Ġhung": 3400,
      "Ġtreasures": 3401,
      "Ġquestion": 3402,
      "Ġcarrots": 3403,
      "Ġspinning": 3404,
      "Ġspoke": 3405,
      "Ġtuna": 3406,
      "Ġcooking": 3407,
      "Ġchicken": 3408,
      "ĠMaria": 3409,
      "Ġsilver": 3410,
      "Ġbalance": 3411,
      "Ġtwirled": 3412,
      "ĠLeo": 3413,
      "Ġflashlight": 3414,
      "Ġmodern": 3415,
      "cream": 3416,
      "ded": 3417,
      "ience": 3418,
      "nown": 3419,
      "pet": 3420,
      "ti": 3421,
      "Ġtied": 3422,
      "Ġbark": 3423,
      "Ġfre": 3424,
      "Ġfake": 3425,
      "Ġur": 3426,
      "Ġplayful": 3427,
      "Ġlibr": 3428,
      "Ġclown": 3429,
      "Ġclap": 3430,
      "Ġcane": 3431,
      "ief": 3432,
      "Ġchange": 3433,
      "Ġchoose": 3434,
      "Ġchanged": 3435,
      "Ġcoco": 3436,
      "Ġcarpet": 3437,
      "ĠDucky": 3438,
      "Ġswan": 3439,
      "ĠFin": 3440,
      "ĠFrank": 3441,
      "ucked": 3442,
      "Ġpepper": 3443,
      "Ġener": 3444,
      "Ġjoined": 3445,
      "ĠPe": 3446,
      "Ġlouder": 3447,
      "Ġdisag": 3448,
      "Ġbrighter": 3449,
      "Ġtells": 3450,
      "Ġrestaur": 3451,
      "Ġlightning": 3452,
      "Ġcrane": 3453,
      "Ġdriving": 3454,
      "Ġdreams": 3455,
      "Ġtriangle": 3456,
      "Ġshoot": 3457,
      "Ġfurnit": 3458,
      "umbers": 3459,
      "Ġcelebrated": 3460,
      "Ġpracticed": 3461,
      "Ġearly": 3462,
      "ÅĵItÃ¢": 3463,
      "Ġgraceful": 3464,
      "Ġfishing": 3465,
      "Ġmovie": 3466,
      "Ġfuel": 3467,
      "Ġtrophy": 3468,
      "Ġimpatient": 3469,
      "Ġcocoa": 3470,
      "Ġrestaurant": 3471,
      "Ġfurniture": 3472,
      "lcano": 3473,
      "oot": 3474,
      "pered": 3475,
      "ym": 3476,
      "ĠU": 3477,
      "Ġled": 3478,
      "Ġmask": 3479,
      "Ġsal": 3480,
      "ĠHenry": 3481,
      "Ġnorm": 3482,
      "Ġnumbers": 3483,
      "Ġsold": 3484,
      "Ġrat": 3485,
      "ĠLola": 3486,
      "Ġhappiness": 3487,
      "Ġshaking": 3488,
      "alk": 3489,
      "Ġspill": 3490,
      "urch": 3491,
      "ict": 3492,
      "Ġthemselves": 3493,
      "Ġsciss": 3494,
      "Ġscoot": 3495,
      "Ġmush": 3496,
      "Ġchase": 3497,
      "Ġvine": 3498,
      "Ġenv": 3499,
      "Ġcloset": 3500,
      "Ġlearnt": 3501,
      "Ġevening": 3502,
      "Ġharder": 3503,
      "Ġfright": 3504,
      "Ġvolcano": 3505,
      "ĠGeorge": 3506,
      "Ġperm": 3507,
      "ations": 3508,
      "Ġgiven": 3509,
      "Ġharbor": 3510,
      "Ġspring": 3511,
      "Ġwrapped": 3512,
      "Ġfeathers": 3513,
      "Ġwishes": 3514,
      "Ġwhispered": 3515,
      "Ġdestro": 3516,
      "Ġharmless": 3517,
      "Ġmirror": 3518,
      "Ġfresh": 3519,
      "Ġscissors": 3520,
      "Ġmushroom": 3521,
      "'ve": 3522,
      "If": 3523,
      "Sorry": 3524,
      "fast": 3525,
      "Ġiron": 3526,
      "het": 3527,
      "inked": 3528,
      "Ġban": 3529,
      "Ġfurt": 3530,
      "Ġfrag": 3531,
      "Ġmill": 3532,
      "Ġgym": 3533,
      "Ġthread": 3534,
      "Ġhero": 3535,
      "iggle": 3536,
      "Ġplaced": 3537,
      "Ġweather": 3538,
      "ĠBella": 3539,
      "ugged": 3540,
      "arth": 3541,
      "Ġallowed": 3542,
      "iew": 3543,
      "Ġdecide": 3544,
      "Ġview": 3545,
      "Ġcareless": 3546,
      "Ġpaid": 3547,
      "Ġpale": 3548,
      "Ġhanded": 3549,
      "Ġrare": 3550,
      "Ġunpack": 3551,
      "Ġcleaned": 3552,
      "ĠRo": 3553,
      "Ġzeb": 3554,
      "spap": 3555,
      "Ġcomplet": 3556,
      "Ġbeef": 3557,
      "Ġvisited": 3558,
      "Ġhorn": 3559,
      "Ġattic": 3560,
      "Ġcolours": 3561,
      "Ġbreakfast": 3562,
      "Ġgrowing": 3563,
      "Ġminute": 3564,
      "Everyone": 3565,
      "Ġtroubled": 3566,
      "Ġfootball": 3567,
      "Ġbuttons": 3568,
      "Ġshrimp": 3569,
      "Ġmiser": 3570,
      "ĠRemy": 3571,
      "Ġcushion": 3572,
      "Ġsubway": 3573,
      "Ġunknown": 3574,
      "Ġlibrary": 3575,
      "Ġdestroy": 3576,
      "Ġzebra": 3577,
      "\",": 3578,
      "Peter": 3579,
      "Re": 3580,
      "gu": 3581,
      "hic": 3582,
      "night": 3583,
      "xe": 3584,
      "Ġtem": 3585,
      "Ġaxe": 3586,
      "Ġfat": 3587,
      "Ġfour": 3588,
      "Ġped": 3589,
      "omed": 3590,
      "atter": 3591,
      "ense": 3592,
      "Ġnature": 3593,
      "Ġstri": 3594,
      "Ġstairs": 3595,
      "amber": 3596,
      "ĠBaby": 3597,
      "Ġdove": 3598,
      "Ġspag": 3599,
      "ssible": 3600,
      "Ġchasing": 3601,
      "Ġchurch": 3602,
      "Ġchamber": 3603,
      "Ġnewspap": 3604,
      "ĠDave": 3605,
      "Ġknot": 3606,
      "Ġthoughtful": 3607,
      "Ġcats": 3608,
      "aul": 3609,
      "Ġunl": 3610,
      "Ġwriting": 3611,
      "Ġsteal": 3612,
      "Ġdrop": 3613,
      "Ġvehic": 3614,
      "Ġpushing": 3615,
      "Ġbatter": 3616,
      "Ġsplit": 3617,
      "Ġpoint": 3618,
      "Ġattract": 3619,
      "Ġpige": 3620,
      "Ġreturn": 3621,
      "Ġeggs": 3622,
      "Ġjokes": 3623,
      "Ġmailbox": 3624,
      "Ġclassroom": 3625,
      "Ġmodest": 3626,
      "Ġordinary": 3627,
      "âĤ¬âĢľ": 3628,
      "Ġcomputer": 3629,
      "Ġnormal": 3630,
      "hetti": 3631,
      "Ġfurther": 3632,
      "Ġmiserable": 3633,
      "Ġspaghetti": 3634,
      "gn": 3635,
      "lvet": 3636,
      "sit": 3637,
      "zor": 3638,
      "Ġachie": 3639,
      "Ġbent": 3640,
      "Ġhay": 3641,
      "Ġhunt": 3642,
      "Ġcree": 3643,
      "Ġdug": 3644,
      "Ġmelt": 3645,
      "Ġolive": 3646,
      "arlie": 3647,
      "Ġgate": 3648,
      "Ġstared": 3649,
      "Ġstation": 3650,
      "addy": 3651,
      "Ġscreen": 3652,
      "Ġagree": 3653,
      "Ġfactor": 3654,
      "Ġcover": 3655,
      "Ġblinked": 3656,
      "Ġpoison": 3657,
      "Ġpebble": 3658,
      "Ġskill": 3659,
      "Ġskirt": 3660,
      "Ġenc": 3661,
      "Ġenvel": 3662,
      "Ġtrade": 3663,
      "Ġjolly": 3664,
      "Ġrazor": 3665,
      "Ġcomfort": 3666,
      "Ġneedle": 3667,
      "Ġended": 3668,
      "Ġimpro": 3669,
      "Ġdiscu": 3670,
      "Ġshouldn": 3671,
      "Ġsquash": 3672,
      "Ġhurts": 3673,
      "ngth": 3674,
      "Ġpatter": 3675,
      "Ġfirework": 3676,
      "Ġclapping": 3677,
      "Ġdreamed": 3678,
      "Ġvelvet": 3679,
      "Ġswinging": 3680,
      "Ġcupboard": 3681,
      "Ġcorn": 3682,
      "Ġobser": 3683,
      "Ġstrength": 3684,
      "Ġharsh": 3685,
      "Ġberry": 3686,
      "Ġnods": 3687,
      "Ġfrowned": 3688,
      "Ġstraw": 3689,
      "Ġhammer": 3690,
      "Ġbossy": 3691,
      "Ġfrightened": 3692,
      "Ġfragile": 3693,
      "Ġattractive": 3694,
      "Ġfactory": 3695,
      "Ch": 3696,
      "apped": 3697,
      "eve": 3698,
      "gie": 3699,
      "gust": 3700,
      "hip": 3701,
      "Ġsum": 3702,
      "res": 3703,
      "Ġwashed": 3704,
      "Ġcell": 3705,
      "Ġcity": 3706,
      "Ġmild": 3707,
      "Ġpil": 3708,
      "Ġpant": 3709,
      "lev": 3710,
      "ans": 3711,
      "Ġthief": 3712,
      "Ġearth": 3713,
      "Ġbeg": 3714,
      "ceed": 3715,
      "Ġyet": 3716,
      "vest": 3717,
      "Ġshine": 3718,
      "Ġlicked": 3719,
      "Ġreco": 3720,
      "Ġjail": 3721,
      "Ġfriendship": 3722,
      "Ġfasc": 3723,
      "Ġmuff": 3724,
      "Ġbridge": 3725,
      "Ġgrin": 3726,
      "ucet": 3727,
      "used": 3728,
      "Ġhandle": 3729,
      "Ġcube": 3730,
      "Ġdisgust": 3731,
      "Ġsweetie": 3732,
      "Ġsparkling": 3733,
      "Ġcounting": 3734,
      "astic": 3735,
      "Ġsucceed": 3736,
      "Ġblowing": 3737,
      "Ġexamine": 3738,
      "Grandma": 3739,
      "Ġenvious": 3740,
      "Ġpattern": 3741,
      "Ġpilot": 3742,
      "'.": 3743,
      "lu": 3744,
      "now": 3745,
      "ses": 3746,
      "uzz": 3747,
      "zag": 3748,
      "Ġtire": 3749,
      "Ġaunt": 3750,
      "Ġsize": 3751,
      "Ġtheater": 3752,
      "Ġbet": 3753,
      "Ġbake": 3754,
      "Ġbump": 3755,
      "Ġlend": 3756,
      "Ġcro": 3757,
      "Ġpump": 3758,
      "arry": 3759,
      "imney": 3760,
      "Ġinsist": 3761,
      "Ġbeet": 3762,
      "igzag": 3763,
      "chanic": 3764,
      "Ġshocked": 3765,
      "ĠMy": 3766,
      "ĠMay": 3767,
      "Ġloll": 3768,
      "Ġclub": 3769,
      "Ġleop": 3770,
      "Ġstarting": 3771,
      "Ġsomewhere": 3772,
      "Ġmechanic": 3773,
      "Ġlaser": 3774,
      "Ġchimney": 3775,
      "Ġolder": 3776,
      "Ġswamp": 3777,
      "Ġenorm": 3778,
      "ĠJosh": 3779,
      "Ġanywhere": 3780,
      "Ġgloomy": 3781,
      "Ġheaded": 3782,
      "Ġzip": 3783,
      "Ġcreate": 3784,
      "Ġvend": 3785,
      "Ġtries": 3786,
      "Ġwindows": 3787,
      "Ġreading": 3788,
      "Ġballoons": 3789,
      "Ġblackboard": 3790,
      "Ġattention": 3791,
      "Ġquietly": 3792,
      "Ġdistant": 3793,
      "Ġinclu": 3794,
      "Ġpastel": 3795,
      "Ġmeeting": 3796,
      "Ġstretch": 3797,
      "Ġrelaxed": 3798,
      "Ġgolden": 3799,
      "Ġfilthy": 3800,
      "Ġpigeon": 3801,
      "Ġsummer": 3802,
      "Ġleopard": 3803,
      "Ġenormous": 3804,
      "Daisy": 3805,
      "Jim": 3806,
      "lid": 3807,
      "sing": 3808,
      "Ġbase": 3809,
      "Ġhook": 3810,
      "ery": 3811,
      "Ġcudd": 3812,
      "Ġgoose": 3813,
      "Ġgiggle": 3814,
      "ato": 3815,
      "atue": 3816,
      "lend": 3817,
      "ord": 3818,
      "Ġstamp": 3819,
      "Ġstatue": 3820,
      "Ġyaw": 3821,
      "ĠIÃ¢": 3822,
      "ĠTony": 3823,
      "ung": 3824,
      "ĠMillie": 3825,
      "Ġsport": 3826,
      "fume": 3827,
      "Ġfaucet": 3828,
      "ĠWould": 3829,
      "Ġchirp": 3830,
      "Ġvide": 3831,
      "ĠDanny": 3832,
      "Ġholid": 3833,
      "uct": 3834,
      "Ġpicks": 3835,
      "Ġcomb": 3836,
      "ipop": 3837,
      "Ġdelay": 3838,
      "Ġcleaning": 3839,
      "Ġperfume": 3840,
      "Ġlistening": 3841,
      "Ġrules": 3842,
      "Ġtrash": 3843,
      "Ġfloated": 3844,
      "Ġveil": 3845,
      "Ġbags": 3846,
      "Ġdesign": 3847,
      "Ġmixer": 3848,
      "Ġbounced": 3849,
      "Ġkicked": 3850,
      "Ġfolder": 3851,
      "Ġflutter": 3852,
      "Ġriding": 3853,
      "Ġrubber": 3854,
      "Ġrepair": 3855,
      "Ġcompassionate": 3856,
      "Ġenergy": 3857,
      "Ġbanana": 3858,
      "Ġnewspaper": 3859,
      "Ġcreek": 3860,
      "Ġencou": 3861,
      "Ġenvelope": 3862,
      "Ġpants": 3863,
      "Ġrecogn": 3864,
      "Ġfascin": 3865,
      "Ġlollipop": 3866,
      "Ġvendor": 3867,
      "Ġholiday": 3868,
      "Are": 3869,
      "Jenny": 3870,
      "Sp": 3871,
      "cast": 3872,
      "fa": 3873,
      "pid": 3874,
      "ron": 3875,
      "zing": 3876,
      "ĠOK": 3877,
      "Ġsuff": 3878,
      "Ġhoop": 3879,
      "ress": 3880,
      "Ġpad": 3881,
      "Ġpipe": 3882,
      "Ġoat": 3883,
      "Ġsaus": 3884,
      "Ġnail": 3885,
      "Ġsheep": 3886,
      "Ġrug": 3887,
      "Ġyach": 3888,
      "ric": 3889,
      "ĠLilly": 3890,
      "alley": 3891,
      "Ġrever": 3892,
      "seum": 3893,
      "ĠJu": 3894,
      "Ġisn": 3895,
      "Ġcoins": 3896,
      "Ġcoffe": 3897,
      "Ġvan": 3898,
      "Ġjogged": 3899,
      "inky": 3900,
      "Ġmass": 3901,
      "Ġclimbing": 3902,
      "ĠRachel": 3903,
      "Ġfloating": 3904,
      "Ġmessage": 3905,
      "Ġcounted": 3906,
      "Ġfields": 3907,
      "Ġwheat": 3908,
      "Ġprov": 3909,
      "gging": 3910,
      "Ġimagination": 3911,
      "Ġrolling": 3912,
      "Ġorganize": 3913,
      "Ġwandered": 3914,
      "Emma": 3915,
      "Ġstretched": 3916,
      "ÅĵThatÃ¢": 3917,
      "Ġawe": 3918,
      "Ġyogurt": 3919,
      "Ġprize": 3920,
      "Ġseeds": 3921,
      "Ġrevealed": 3922,
      "Ġrefres": 3923,
      "Ġscooter": 3924,
      "Ġvehicle": 3925,
      "Ġdisgusting": 3926,
      "Ġbeetle": 3927,
      "Ġyacht": 3928,
      "Ġcoffee": 3929,
      "flower": 3930,
      "par": 3931,
      "Ġtucked": 3932,
      "Ġlow": 3933,
      "Ġdig": 3934,
      "Ġpor": 3935,
      "Ġpow": 3936,
      "Ġpra": 3937,
      "ĠLook": 3938,
      "unately": 3939,
      "Ġreward": 3940,
      "alph": 3941,
      "ecause": 3942,
      "urried": 3943,
      "Ġsepar": 3944,
      "reeze": 3945,
      "Ġscale": 3946,
      "Ġscatter": 3947,
      "Ġmuseum": 3948,
      "ellig": 3949,
      "Ġknown": 3950,
      "Ġintellig": 3951,
      "ĠdidnÃ¢": 3952,
      "Ġtray": 3953,
      "Ġtrump": 3954,
      "Ġnicely": 3955,
      "Ġdeliver": 3956,
      "Ġshouting": 3957,
      "Ġsandcast": 3958,
      "Ġcrazy": 3959,
      "Ġsoftly": 3960,
      "Ġperfectly": 3961,
      "scope": 3962,
      "Ġbelow": 3963,
      "Ġcountry": 3964,
      "Ġstupid": 3965,
      "Ġbouncing": 3966,
      "Ġsurround": 3967,
      "ĠChirp": 3968,
      "Ġlemonade": 3969,
      "Ġstirred": 3970,
      "Ġavo": 3971,
      "Ġdisagreed": 3972,
      "nowy": 3973,
      "Spot": 3974,
      "Ġtrumpet": 3975,
      "An": 3976,
      "Mr": 3977,
      "ab": 3978,
      "ci": 3979,
      "noon": 3980,
      "ĠZ": 3981,
      "Ġwire": 3982,
      "Ġhut": 3983,
      "Ġfan": 3984,
      "Ġlid": 3985,
      "Ġcries": 3986,
      "Ġpian": 3987,
      "ĠSh": 3988,
      "ĠSnowy": 3989,
      "ooped": 3990,
      "Ġsoar": 3991,
      "ĠTr": 3992,
      "Ġonion": 3993,
      "Ġweal": 3994,
      "Ġrequ": 3995,
      "illa": 3996,
      "Ġlose": 3997,
      "Ġart": 3998,
      "Ġhelpless": 3999,
      "Ġcalend": 4000,
      "Ġscrew": 4001,
      "roscope": 4002,
      "aggie": 4003,
      "ĠWhere": 4004,
      "Ġmusc": 4005,
      "Ġbuzz": 4006,
      "Ġswitch": 4007,
      "Ġexplain": 4008,
      "Ġskipping": 4009,
      "Ġsunset": 4010,
      "Ġoffer": 4011,
      "ement": 4012,
      "ĠPat": 4013,
      "ips": 4014,
      "Ġamazement": 4015,
      "Ġafternoon": 4016,
      "Thanks": 4017,
      "Ġzipper": 4018,
      "Ġfloat": 4019,
      "Ġairport": 4020,
      "Ġpretending": 4021,
      "Ġsuper": 4022,
      "Ġstud": 4023,
      "Ġsnowman": 4024,
      "ÅĵIÃ¢": 4025,
      "ailable": 4026,
      "Ġmystery": 4027,
      "ĠTweetie": 4028,
      "Ġgifted": 4029,
      "Ġcarrying": 4030,
      "Ġeagerly": 4031,
      "Ġsplashing": 4032,
      "Ġpeanuts": 4033,
      "Ġavailable": 4034,
      "Ġscrat": 4035,
      "Ġcherry": 4036,
      "Ġmicroscope": 4037,
      "Ġneighbourhood": 4038,
      "Ġleaned": 4039,
      "Ġcomplain": 4040,
      "Ġspilled": 4041,
      "Ġskills": 4042,
      "Ġmassage": 4043,
      "Ġintelligent": 4044,
      "Ġpiano": 4045,
      "Ġcalendar": 4046,
      "Will": 4047,
      "af": 4048,
      "ait": 4049,
      "eed": 4050,
      "gen": 4051,
      "oe": 4052,
      "was": 4053,
      "Ġing": 4054,
      "Ġsle": 4055,
      "nda": 4056,
      "ither": 4057,
      "Ġluck": 4058,
      "Ġwashing": 4059,
      "Ġdough": 4060,
      "Ġpine": 4061,
      "aroo": 4062,
      "Ġga": 4063,
      "Ġgear": 4064,
      "ates": 4065,
      "Ġhall": 4066,
      "ories": 4067,
      "Ġitch": 4068,
      "Ġthu": 4069,
      "Ġinf": 4070,
      "Ġinvest": 4071,
      "Ġeff": 4072,
      "igate": 4073,
      "ĠIs": 4074,
      "Ġforth": 4075,
      "una": 4076,
      "Ġshiver": 4077,
      "Ġrece": 4078,
      "Ġkang": 4079,
      "!\",": 4080,
      "Ġarg": 4081,
      "indy": 4082,
      "iches": 4083,
      "Ġnobody": 4084,
      "Ġmanage": 4085,
      "Ġworm": 4086,
      "Ġroared": 4087,
      "ĠElla": 4088,
      "Ġlab": 4089,
      "Ġputting": 4090,
      "Ġflag": 4091,
      "Ġswe": 4092,
      "Ġknock": 4093,
      "Ġpeach": 4094,
      "Ġyours": 4095
    },
    "merges": [
      [
        "h",
        "e"
      ],
      [
        "Ġ",
        "t"
      ],
      [
        "Ġ",
        "a"
      ],
      [
        "Ġ",
        "s"
      ],
      [
        "Ġ",
        "w"
      ],
      [
        "n",
        "d"
      ],
      [
        "Ġt",
        "he"
      ],
      [
        "e",
        "d"
      ],
      [
        "i",
        "n"
      ],
      [
        "Ġa",
        "nd"
      ],
      [
        "Ġ",
        "b"
      ],
      [
        "Ġt",
        "o"
      ],
      [
        "Ġw",
        "a"
      ],
      [
        "Ġ",
        "h"
      ],
      [
        "r",
        "e"
      ],
      [
        "i",
        "t"
      ],
      [
        "Ġ",
        "f"
      ],
      [
        "o",
        "u"
      ],
      [
        "e",
        "r"
      ],
      [
        "Ġ",
        "l"
      ],
      [
        "Ġ",
        "he"
      ],
      [
        "Ġwa",
        "s"
      ],
      [
        "Ġ",
        "c"
      ],
      [
        "Ġ",
        "d"
      ],
      [
        "Ġ",
        "m"
      ],
      [
        "Ġ",
        "p"
      ],
      [
        "Ġ",
        "o"
      ],
      [
        "in",
        "g"
      ],
      [
        "o",
        "m"
      ],
      [
        "a",
        "r"
      ],
      [
        "a",
        "y"
      ],
      [
        "i",
        "s"
      ],
      [
        "Ġ",
        "g"
      ],
      [
        "T",
        "he"
      ],
      [
        "i",
        "d"
      ],
      [
        "a",
        "t"
      ],
      [
        "l",
        "l"
      ],
      [
        "e",
        "n"
      ],
      [
        "Ġs",
        "a"
      ],
      [
        "n",
        "e"
      ],
      [
        "Ġh",
        "a"
      ],
      [
        "i",
        "m"
      ],
      [
        "l",
        "e"
      ],
      [
        "Ġ",
        "S"
      ],
      [
        "a",
        "n"
      ],
      [
        "o",
        "r"
      ],
      [
        "Ġ",
        "it"
      ],
      [
        "Ġt",
        "h"
      ],
      [
        "Ġ",
        "The"
      ],
      [
        "e",
        "t"
      ],
      [
        "Ġ",
        "H"
      ],
      [
        "i",
        "l"
      ],
      [
        "o",
        "n"
      ],
      [
        "Ġhe",
        "r"
      ],
      [
        "i",
        "r"
      ],
      [
        "v",
        "er"
      ],
      [
        "Ġ",
        "in"
      ],
      [
        "Ġ",
        "e"
      ],
      [
        "ĠH",
        "e"
      ],
      [
        "Ġ",
        "n"
      ],
      [
        "o",
        "t"
      ],
      [
        "l",
        "d"
      ],
      [
        "ĠS",
        "he"
      ],
      [
        "u",
        "t"
      ],
      [
        "o",
        "w"
      ],
      [
        "Ġ",
        "u"
      ],
      [
        "Ġb",
        "e"
      ],
      [
        "c",
        "k"
      ],
      [
        "c",
        "e"
      ],
      [
        "Ġsa",
        "id"
      ],
      [
        "Ġs",
        "he"
      ],
      [
        "i",
        "g"
      ],
      [
        "Ġs",
        "t"
      ],
      [
        "o",
        "o"
      ],
      [
        "Ġs",
        "o"
      ],
      [
        "p",
        "p"
      ],
      [
        "Ġ",
        "r"
      ],
      [
        "Ġ",
        "\""
      ],
      [
        "a",
        "m"
      ],
      [
        "Ġ",
        "y"
      ],
      [
        "k",
        "e"
      ],
      [
        "Ġo",
        "f"
      ],
      [
        "v",
        "e"
      ],
      [
        "it",
        "h"
      ],
      [
        "s",
        "t"
      ],
      [
        "k",
        "ed"
      ],
      [
        "ver",
        "y"
      ],
      [
        "Ġh",
        "is"
      ],
      [
        "Ġw",
        "ith"
      ],
      [
        "r",
        "i"
      ],
      [
        "Ġd",
        "ay"
      ],
      [
        "Ġ",
        "I"
      ],
      [
        "n",
        "t"
      ],
      [
        "a",
        "d"
      ],
      [
        "Ġp",
        "l"
      ],
      [
        "Ġu",
        "p"
      ],
      [
        "Ġth",
        "at"
      ],
      [
        "ĠThe",
        "y"
      ],
      [
        "Ġha",
        "d"
      ],
      [
        "Ġy",
        "ou"
      ],
      [
        "il",
        "y"
      ],
      [
        "it",
        "t"
      ],
      [
        "e",
        "l"
      ],
      [
        "ou",
        "ld"
      ],
      [
        "Ġ",
        "T"
      ],
      [
        "en",
        "t"
      ],
      [
        "Ġo",
        "n"
      ],
      [
        "e",
        "s"
      ],
      [
        "Ġpl",
        "ay"
      ],
      [
        "Ġf",
        "or"
      ],
      [
        "Ġ",
        "L"
      ],
      [
        "Ġthe",
        "y"
      ],
      [
        "Ġw",
        "e"
      ],
      [
        "m",
        "y"
      ],
      [
        "itt",
        "le"
      ],
      [
        "ou",
        "nd"
      ],
      [
        "u",
        "n"
      ],
      [
        "Ġ",
        "Ċ"
      ],
      [
        "ou",
        "t"
      ],
      [
        "Ġl",
        "ittle"
      ],
      [
        "'",
        "s"
      ],
      [
        "Ġm",
        "om"
      ],
      [
        "c",
        "h"
      ],
      [
        "Ġha",
        "pp"
      ],
      [
        "l",
        "y"
      ],
      [
        "im",
        "e"
      ],
      [
        "Ġthe",
        "re"
      ],
      [
        "he",
        "r"
      ],
      [
        "Ġt",
        "ime"
      ],
      [
        "a",
        "ll"
      ],
      [
        "Ġs",
        "m"
      ],
      [
        "Ġs",
        "h"
      ],
      [
        "Ġ",
        "very"
      ],
      [
        "Ġl",
        "i"
      ],
      [
        "h",
        "t"
      ],
      [
        "Ġw",
        "h"
      ],
      [
        "Ġ",
        "ne"
      ],
      [
        "Ġ",
        "re"
      ],
      [
        "om",
        "e"
      ],
      [
        "Ġ",
        "B"
      ],
      [
        "a",
        "l"
      ],
      [
        "Ġwa",
        "nt"
      ],
      [
        "s",
        "e"
      ],
      [
        "Ġd",
        "o"
      ],
      [
        "e",
        "nd"
      ],
      [
        "a",
        "ck"
      ],
      [
        "Ġ",
        "k"
      ],
      [
        "Ġa",
        "s"
      ],
      [
        "O",
        "n"
      ],
      [
        "Ġhapp",
        "y"
      ],
      [
        "Ġb",
        "ig"
      ],
      [
        "Ġa",
        "n"
      ],
      [
        "Ġb",
        "ut"
      ],
      [
        "On",
        "ce"
      ],
      [
        "r",
        "a"
      ],
      [
        "O",
        "ne"
      ],
      [
        "Ġsa",
        "w"
      ],
      [
        "ri",
        "end"
      ],
      [
        "Ġf",
        "riend"
      ],
      [
        "v",
        "ed"
      ],
      [
        "Ġl",
        "oo"
      ],
      [
        "'",
        "t"
      ],
      [
        "ir",
        "l"
      ],
      [
        "o",
        "re"
      ],
      [
        "ĠL",
        "ily"
      ],
      [
        "a",
        "ke"
      ],
      [
        "e",
        "c"
      ],
      [
        "u",
        "g"
      ],
      [
        "Ġg",
        "irl"
      ],
      [
        "id",
        "e"
      ],
      [
        "t",
        "er"
      ],
      [
        "Ġ",
        "M"
      ],
      [
        "Ġb",
        "o"
      ],
      [
        "ĠI",
        "t"
      ],
      [
        "Ġwe",
        "re"
      ],
      [
        "Ġe",
        "x"
      ],
      [
        "i",
        "ll"
      ],
      [
        "Ġ",
        "J"
      ],
      [
        "Ġup",
        "on"
      ],
      [
        "r",
        "y"
      ],
      [
        "Ġh",
        "im"
      ],
      [
        "Ġn",
        "ot"
      ],
      [
        "Ġl",
        "o"
      ],
      [
        "Ġg",
        "o"
      ],
      [
        "!",
        "\""
      ],
      [
        "Ġ",
        "j"
      ],
      [
        "ar",
        "d"
      ],
      [
        ".",
        "\""
      ],
      [
        "Ġ",
        "out"
      ],
      [
        "Ġs",
        "p"
      ],
      [
        "f",
        "u"
      ],
      [
        "Ġwant",
        "ed"
      ],
      [
        "Ġa",
        "r"
      ],
      [
        "Ġc",
        "ould"
      ],
      [
        "w",
        "ay"
      ],
      [
        "Ġto",
        "o"
      ],
      [
        "he",
        "n"
      ],
      [
        "u",
        "r"
      ],
      [
        "Ġ",
        "is"
      ],
      [
        "h",
        "ing"
      ],
      [
        "Ã",
        "¢"
      ],
      [
        "â",
        "Ĥ"
      ],
      [
        "âĤ",
        "¬"
      ],
      [
        "Ġs",
        "e"
      ],
      [
        "i",
        "nd"
      ],
      [
        "a",
        "in"
      ],
      [
        "ĠT",
        "im"
      ],
      [
        "i",
        "c"
      ],
      [
        "ar",
        "t"
      ],
      [
        "Ġa",
        "t"
      ],
      [
        "Ġa",
        "ll"
      ],
      [
        "Ġ",
        "A"
      ],
      [
        "he",
        "d"
      ],
      [
        "Ġw",
        "ent"
      ],
      [
        "u",
        "m"
      ],
      [
        "il",
        "ed"
      ],
      [
        "fu",
        "l"
      ],
      [
        "ig",
        "ht"
      ],
      [
        "r",
        "om"
      ],
      [
        "Ġsm",
        "iled"
      ],
      [
        "l",
        "p"
      ],
      [
        "Ġar",
        "ound"
      ],
      [
        "Ġthe",
        "m"
      ],
      [
        "Ġfriend",
        "s"
      ],
      [
        "Ġhe",
        "lp"
      ],
      [
        "Ġn",
        "am"
      ],
      [
        "ou",
        "g"
      ],
      [
        "oo",
        "d"
      ],
      [
        "Ġb",
        "ack"
      ],
      [
        "Ġd",
        "id"
      ],
      [
        "Ġc",
        "l"
      ],
      [
        "ar",
        "k"
      ],
      [
        "om",
        "et"
      ],
      [
        "s",
        "s"
      ],
      [
        "Ġas",
        "ked"
      ],
      [
        "?",
        "\""
      ],
      [
        "Ġthe",
        "ir"
      ],
      [
        "Ġha",
        "ve"
      ],
      [
        "Ġc",
        "a"
      ],
      [
        "Ġf",
        "un"
      ],
      [
        "Ġc",
        "an"
      ],
      [
        "Ġloo",
        "ked"
      ],
      [
        "Ġs",
        "omet"
      ],
      [
        "Ġbo",
        "y"
      ],
      [
        "Ġl",
        "e"
      ],
      [
        "o",
        "ne"
      ],
      [
        "s",
        "ide"
      ],
      [
        "Ġst",
        "art"
      ],
      [
        "Ġa",
        "l"
      ],
      [
        "u",
        "re"
      ],
      [
        "el",
        "t"
      ],
      [
        "Ġf",
        "e"
      ],
      [
        "Ġw",
        "ould"
      ],
      [
        "Ġf",
        "elt"
      ],
      [
        "i",
        "ck"
      ],
      [
        "o",
        "p"
      ],
      [
        "Ġlo",
        "ved"
      ],
      [
        "Ġnam",
        "ed"
      ],
      [
        "d",
        "d"
      ],
      [
        "Ġn",
        "o"
      ],
      [
        "g",
        "et"
      ],
      [
        "Ġ",
        "One"
      ],
      [
        "Ġa",
        "re"
      ],
      [
        "am",
        "e"
      ],
      [
        "it",
        "ed"
      ],
      [
        "Ġex",
        "c"
      ],
      [
        "Ġm",
        "an"
      ],
      [
        "i",
        "e"
      ],
      [
        "re",
        "e"
      ],
      [
        "Ġsomet",
        "hing"
      ],
      [
        "k",
        "ing"
      ],
      [
        "i",
        "ce"
      ],
      [
        "on",
        "g"
      ],
      [
        "Ġw",
        "or"
      ],
      [
        "Ġli",
        "ke"
      ],
      [
        "Ġs",
        "c"
      ],
      [
        "Ġb",
        "ir"
      ],
      [
        "Ġstart",
        "ed"
      ],
      [
        "r",
        "o"
      ],
      [
        "Ġs",
        "ome"
      ],
      [
        "get",
        "her"
      ],
      [
        "Ġa",
        "g"
      ],
      [
        "Ġm",
        "e"
      ],
      [
        "Ġbir",
        "d"
      ],
      [
        "Ġf",
        "a"
      ],
      [
        "Ġr",
        "o"
      ],
      [
        "Ġ",
        "E"
      ],
      [
        "Ġse",
        "e"
      ],
      [
        "ĠTim",
        "my"
      ],
      [
        "ad",
        "e"
      ],
      [
        "a",
        "g"
      ],
      [
        "Ġ",
        "W"
      ],
      [
        "ow",
        "n"
      ],
      [
        "pp",
        "ed"
      ],
      [
        "Ġa",
        "way"
      ],
      [
        "Ġexc",
        "ited"
      ],
      [
        "Ġto",
        "gether"
      ],
      [
        "p",
        "l"
      ],
      [
        "ing",
        "s"
      ],
      [
        "Ġr",
        "an"
      ],
      [
        "ou",
        "d"
      ],
      [
        "Ġto",
        "y"
      ],
      [
        "ĠB",
        "en"
      ],
      [
        "Ġwh",
        "at"
      ],
      [
        "Ġthe",
        "n"
      ],
      [
        "ar",
        "ed"
      ],
      [
        "Ġm",
        "ake"
      ],
      [
        "Ġm",
        "u"
      ],
      [
        "b",
        "le"
      ],
      [
        "i",
        "f"
      ],
      [
        "Ġh",
        "ome"
      ],
      [
        "Y",
        "ou"
      ],
      [
        "Ġl",
        "a"
      ],
      [
        "Ġc",
        "h"
      ],
      [
        "all",
        "y"
      ],
      [
        "Ġwa",
        "l"
      ],
      [
        "Ġm",
        "ade"
      ],
      [
        "q",
        "u"
      ],
      [
        "h",
        "at"
      ],
      [
        "ĠT",
        "om"
      ],
      [
        "Ġag",
        "ain"
      ],
      [
        "a",
        "s"
      ],
      [
        "Ġf",
        "ound"
      ],
      [
        "Ġp",
        "ark"
      ],
      [
        "Ġf",
        "rom"
      ],
      [
        ",",
        "\""
      ],
      [
        "Ġd",
        "ec"
      ],
      [
        "e",
        "ll"
      ],
      [
        "Ġw",
        "hen"
      ],
      [
        "Ġne",
        "w"
      ],
      [
        "ou",
        "s"
      ],
      [
        "Ġb",
        "r"
      ],
      [
        "Ġc",
        "o"
      ],
      [
        "e",
        "p"
      ],
      [
        "Ġwh",
        "o"
      ],
      [
        "oug",
        "ht"
      ],
      [
        "Ġe",
        "very"
      ],
      [
        "Ġo",
        "t"
      ],
      [
        "Ġg",
        "et"
      ],
      [
        "Ġp",
        "ut"
      ],
      [
        "ĠB",
        "ut"
      ],
      [
        "Ġplay",
        "ing"
      ],
      [
        "Ġot",
        "her"
      ],
      [
        "Ġo",
        "ne"
      ],
      [
        "Ġsa",
        "d"
      ],
      [
        "i",
        "le"
      ],
      [
        "u",
        "dd"
      ],
      [
        "id",
        "ed"
      ],
      [
        "Ġp",
        "r"
      ],
      [
        "Ġdec",
        "ided"
      ],
      [
        "Ġf",
        "l"
      ],
      [
        "Ġc",
        "ar"
      ],
      [
        "Ġo",
        "ld"
      ],
      [
        "a",
        "ve"
      ],
      [
        "Ġ",
        "v"
      ],
      [
        "Ġb",
        "u"
      ],
      [
        "Ġh",
        "ug"
      ],
      [
        "Ġg",
        "ot"
      ],
      [
        "b",
        "b"
      ],
      [
        "Ġs",
        "ay"
      ],
      [
        "Ġg",
        "ood"
      ],
      [
        "Ġth",
        "ings"
      ],
      [
        "a",
        "ch"
      ],
      [
        "ri",
        "ed"
      ],
      [
        "Ġ",
        "D"
      ],
      [
        "n",
        "y"
      ],
      [
        "u",
        "st"
      ],
      [
        "Ġth",
        "an"
      ],
      [
        "ec",
        "i"
      ],
      [
        "ou",
        "se"
      ],
      [
        "Ġbe",
        "c"
      ],
      [
        "Ġfe",
        "el"
      ],
      [
        "Ġf",
        "ind"
      ],
      [
        "Ġd",
        "own"
      ],
      [
        "udd",
        "en"
      ],
      [
        "Ġs",
        "w"
      ],
      [
        "Ġ",
        "ke"
      ],
      [
        "Ġk",
        "n"
      ],
      [
        "Ġc",
        "ame"
      ],
      [
        "eci",
        "al"
      ],
      [
        "Ġsp",
        "ecial"
      ],
      [
        "way",
        "s"
      ],
      [
        "Ġb",
        "l"
      ],
      [
        "udden",
        "ly"
      ],
      [
        "Ġt",
        "ree"
      ],
      [
        "Ġa",
        "b"
      ],
      [
        "nd",
        "er"
      ],
      [
        "Ġal",
        "ways"
      ],
      [
        "Ġl",
        "ot"
      ],
      [
        "Ġsc",
        "ared"
      ],
      [
        "u",
        "e"
      ],
      [
        "Ġk",
        "ne"
      ],
      [
        "Ġp",
        "o"
      ],
      [
        "c",
        "hed"
      ],
      [
        "Ġt",
        "ake"
      ],
      [
        "Ġth",
        "ought"
      ],
      [
        "oo",
        "k"
      ],
      [
        "Ġin",
        "t"
      ],
      [
        "an",
        "t"
      ],
      [
        "Ġ",
        "F"
      ],
      [
        "ou",
        "r"
      ],
      [
        "is",
        "t"
      ],
      [
        "Ġg",
        "ra"
      ],
      [
        "g",
        "e"
      ],
      [
        "Ġab",
        "out"
      ],
      [
        "it",
        "e"
      ],
      [
        "Ġca",
        "re"
      ],
      [
        "Ġd",
        "ad"
      ],
      [
        "Ġg",
        "r"
      ],
      [
        "Ġex",
        "pl"
      ],
      [
        "Ġtoo",
        "k"
      ],
      [
        "ĠE",
        "very"
      ],
      [
        "Ġloo",
        "k"
      ],
      [
        "en",
        "ed"
      ],
      [
        "Ġdid",
        "n"
      ],
      [
        "f",
        "e"
      ],
      [
        "is",
        "e"
      ],
      [
        "Ġli",
        "ked"
      ],
      [
        "Ġla",
        "ug"
      ],
      [
        "Å",
        "ĵ"
      ],
      [
        "f",
        "ter"
      ],
      [
        "u",
        "ck"
      ],
      [
        "Ġ",
        "You"
      ],
      [
        "m",
        "a"
      ],
      [
        "Ġp",
        "e"
      ],
      [
        "re",
        "at"
      ],
      [
        "Ġt",
        "a"
      ],
      [
        "L",
        "ily"
      ],
      [
        "Ġp",
        "a"
      ],
      [
        "Ġkne",
        "w"
      ],
      [
        "v",
        "en"
      ],
      [
        "Ġdo",
        "g"
      ],
      [
        "Ġh",
        "o"
      ],
      [
        "Ġt",
        "w"
      ],
      [
        "Ġm",
        "ore"
      ],
      [
        "Ġyou",
        "r"
      ],
      [
        "Ġout",
        "side"
      ],
      [
        "er",
        "s"
      ],
      [
        "Ġc",
        "at"
      ],
      [
        "Ġs",
        "k"
      ],
      [
        "n",
        "ed"
      ],
      [
        "Ġcould",
        "n"
      ],
      [
        "Ġ",
        "en"
      ],
      [
        "i",
        "ve"
      ],
      [
        "ĠJ",
        "o"
      ],
      [
        "Ġh",
        "ow"
      ],
      [
        "a",
        "ce"
      ],
      [
        "Ġm",
        "y"
      ],
      [
        "Ġ",
        "qu"
      ],
      [
        "ll",
        "y"
      ],
      [
        "Ġmu",
        "ch"
      ],
      [
        "b",
        "y"
      ],
      [
        "g",
        "ed"
      ],
      [
        "u",
        "c"
      ],
      [
        "Ġ",
        "Ã¢"
      ],
      [
        "Ġs",
        "un"
      ],
      [
        "Ġm",
        "o"
      ],
      [
        "re",
        "t"
      ],
      [
        "Ġne",
        "ver"
      ],
      [
        "i",
        "on"
      ],
      [
        "Ġint",
        "o"
      ],
      [
        "Ġt",
        "r"
      ],
      [
        "ar",
        "a"
      ],
      [
        "Ġo",
        "ver"
      ],
      [
        "Ġan",
        "y"
      ],
      [
        "ĠM",
        "om"
      ],
      [
        "Ġj",
        "o"
      ],
      [
        "Ġkn",
        "ow"
      ],
      [
        "Ġpr",
        "oud"
      ],
      [
        "Ġcl",
        "o"
      ],
      [
        "u",
        "s"
      ],
      [
        "Ġle",
        "ar"
      ],
      [
        "a",
        "x"
      ],
      [
        "Ġsh",
        "ow"
      ],
      [
        "Ġth",
        "is"
      ],
      [
        "Ġst",
        "r"
      ],
      [
        "oug",
        "h"
      ],
      [
        "ĠJ",
        "ack"
      ],
      [
        "h",
        "n"
      ],
      [
        "Ġ",
        "if"
      ],
      [
        "Ġhe",
        "ard"
      ],
      [
        "Ġmom",
        "my"
      ],
      [
        "Ġsay",
        "s"
      ],
      [
        "p",
        "t"
      ],
      [
        "v",
        "ent"
      ],
      [
        "is",
        "h"
      ],
      [
        "Ġin",
        "side"
      ],
      [
        "n",
        "ing"
      ],
      [
        "a",
        "u"
      ],
      [
        "Ġc",
        "all"
      ],
      [
        "Ġa",
        "d"
      ],
      [
        "Ġo",
        "p"
      ],
      [
        "ot",
        "h"
      ],
      [
        "Ġw",
        "ill"
      ],
      [
        "Ġh",
        "ouse"
      ],
      [
        "Ġf",
        "o"
      ],
      [
        "il",
        "d"
      ],
      [
        "d",
        "y"
      ],
      [
        "e",
        "ar"
      ],
      [
        "Ġb",
        "all"
      ],
      [
        "Ġha",
        "nd"
      ],
      [
        "Ġof",
        "f"
      ],
      [
        "Ġto",
        "ld"
      ],
      [
        "or",
        "t"
      ],
      [
        "B",
        "ut"
      ],
      [
        "s",
        "el"
      ],
      [
        "Ġg",
        "ave"
      ],
      [
        "v",
        "ing"
      ],
      [
        "Ġsm",
        "all"
      ],
      [
        "Ġtoy",
        "s"
      ],
      [
        "ot",
        "her"
      ],
      [
        "âĤ¬",
        "â"
      ],
      [
        "he",
        "re"
      ],
      [
        "n",
        "a"
      ],
      [
        "Ġwa",
        "t"
      ],
      [
        "Ġwa",
        "ter"
      ],
      [
        "Ġj",
        "ust"
      ],
      [
        "Ġr",
        "a"
      ],
      [
        "Ġbe",
        "a"
      ],
      [
        "ĠS",
        "o"
      ],
      [
        "nt",
        "il"
      ],
      [
        "Ġp",
        "ick"
      ],
      [
        "Ġr",
        "un"
      ],
      [
        "um",
        "p"
      ],
      [
        "au",
        "se"
      ],
      [
        "Ġc",
        "om"
      ],
      [
        "The",
        "y"
      ],
      [
        "Ġu",
        "ntil"
      ],
      [
        "Ġl",
        "ong"
      ],
      [
        "Ġbea",
        "ut"
      ],
      [
        "at",
        "e"
      ],
      [
        "ur",
        "p"
      ],
      [
        "Ġt",
        "ried"
      ],
      [
        "Ġro",
        "om"
      ],
      [
        "Ġthan",
        "ked"
      ],
      [
        "Ġt",
        "ry"
      ],
      [
        "ad",
        "y"
      ],
      [
        "Ħ",
        "¢"
      ],
      [
        "âĤ¬â",
        "Ħ¢"
      ],
      [
        "Ġbec",
        "ause"
      ],
      [
        "an",
        "k"
      ],
      [
        "a",
        "p"
      ],
      [
        "Ġlot",
        "s"
      ],
      [
        "Ġg",
        "ard"
      ],
      [
        "Ġgard",
        "en"
      ],
      [
        "et",
        "ter"
      ],
      [
        "Ġplay",
        "ed"
      ],
      [
        "Ġe",
        "ven"
      ],
      [
        "uc",
        "y"
      ],
      [
        "Ġs",
        "l"
      ],
      [
        "Ġne",
        "ed"
      ],
      [
        "Ġe",
        "at"
      ],
      [
        "t",
        "y"
      ],
      [
        "Ġb",
        "y"
      ],
      [
        "ĠS",
        "am"
      ],
      [
        "sel",
        "f"
      ],
      [
        "Ġbeaut",
        "i"
      ],
      [
        "in",
        "k"
      ],
      [
        "Ġbeauti",
        "ful"
      ],
      [
        "e",
        "m"
      ],
      [
        "Ġcall",
        "ed"
      ],
      [
        "Ġo",
        "r"
      ],
      [
        "Ġhug",
        "ged"
      ],
      [
        "i",
        "z"
      ],
      [
        "Ġlaug",
        "hed"
      ],
      [
        "n",
        "na"
      ],
      [
        "Ġwa",
        "y"
      ],
      [
        "Ġbe",
        "st"
      ],
      [
        "a",
        "ne"
      ],
      [
        "c",
        "t"
      ],
      [
        "Ġe",
        "nd"
      ],
      [
        "Ġfl",
        "ow"
      ],
      [
        "a",
        "nd"
      ],
      [
        "er",
        "ed"
      ],
      [
        "in",
        "e"
      ],
      [
        "o",
        "b"
      ],
      [
        "s",
        "ed"
      ],
      [
        "Ġsk",
        "y"
      ],
      [
        "le",
        "w"
      ],
      [
        "Ġbe",
        "ar"
      ],
      [
        "ĠM",
        "ax"
      ],
      [
        "Ġtw",
        "o"
      ],
      [
        "re",
        "nt"
      ],
      [
        "im",
        "al"
      ],
      [
        "Ġan",
        "imal"
      ],
      [
        "f",
        "t"
      ],
      [
        "W",
        "hen"
      ],
      [
        "i",
        "a"
      ],
      [
        "Ġ",
        "im"
      ],
      [
        "Ġp",
        "ret"
      ],
      [
        "Ġexpl",
        "ore"
      ],
      [
        "Ġe",
        "ach"
      ],
      [
        "Ġp",
        "u"
      ],
      [
        "I",
        "t"
      ],
      [
        "Ġw",
        "o"
      ],
      [
        "Ġbo",
        "x"
      ],
      [
        "Ġc",
        "u"
      ],
      [
        "ra",
        "ve"
      ],
      [
        "Ġd",
        "on"
      ],
      [
        "ĠH",
        "is"
      ],
      [
        "'",
        "m"
      ],
      [
        "H",
        "e"
      ],
      [
        "M",
        "om"
      ],
      [
        "Ġd",
        "re"
      ],
      [
        "Ġfa",
        "st"
      ],
      [
        "es",
        "s"
      ],
      [
        "Ġli",
        "ved"
      ],
      [
        "Ġc",
        "he"
      ],
      [
        "Ġb",
        "etter"
      ],
      [
        "Ġn",
        "ice"
      ],
      [
        "ĠH",
        "er"
      ],
      [
        "ec",
        "t"
      ],
      [
        "Ġad",
        "vent"
      ],
      [
        "Ġf",
        "am"
      ],
      [
        "Ġke",
        "pt"
      ],
      [
        "in",
        "y"
      ],
      [
        "Ġman",
        "y"
      ],
      [
        "Ġb",
        "oth"
      ],
      [
        "urp",
        "r"
      ],
      [
        "Y",
        "es"
      ],
      [
        "Ġ",
        "P"
      ],
      [
        "L",
        "et"
      ],
      [
        "Ġs",
        "urpr"
      ],
      [
        "Ġk",
        "ind"
      ],
      [
        "Ġsm",
        "ile"
      ],
      [
        "Ġc",
        "le"
      ],
      [
        "Ġj",
        "ump"
      ],
      [
        "Ġst",
        "ay"
      ],
      [
        "ĠS",
        "ara"
      ],
      [
        "S",
        "o"
      ],
      [
        "Ġ",
        "C"
      ],
      [
        "Ġh",
        "ard"
      ],
      [
        "ĠThe",
        "n"
      ],
      [
        "Ġf",
        "lew"
      ],
      [
        "a",
        "re"
      ],
      [
        "Ġc",
        "ome"
      ],
      [
        "Ġm",
        "um"
      ],
      [
        "Ġf",
        "in"
      ],
      [
        "f",
        "ore"
      ],
      [
        "Ġre",
        "m"
      ],
      [
        "or",
        "ry"
      ],
      [
        "Ġfeel",
        "ing"
      ],
      [
        "W",
        "hat"
      ],
      [
        "Ġit",
        "s"
      ],
      [
        "Ġb",
        "rave"
      ],
      [
        "Ġso",
        "on"
      ],
      [
        "ur",
        "t"
      ],
      [
        "Ġt",
        "e"
      ],
      [
        "Ġg",
        "l"
      ],
      [
        "Ġwal",
        "ked"
      ],
      [
        "is",
        "ed"
      ],
      [
        "Ġst",
        "ill"
      ],
      [
        "Ġadvent",
        "ure"
      ],
      [
        "ĠL",
        "ucy"
      ],
      [
        "Ġf",
        "ly"
      ],
      [
        "Ġfam",
        "ily"
      ],
      [
        "Ġf",
        "i"
      ],
      [
        "ĠA",
        "nd"
      ],
      [
        "Ġst",
        "o"
      ],
      [
        "T",
        "h"
      ],
      [
        "Ġco",
        "l"
      ],
      [
        "ic",
        "ed"
      ],
      [
        "ig",
        "h"
      ],
      [
        "Ġlo",
        "ve"
      ],
      [
        "l",
        "ed"
      ],
      [
        "Ġbe",
        "fore"
      ],
      [
        "ĠF",
        "rom"
      ],
      [
        "Ġcare",
        "ful"
      ],
      [
        "ar",
        "y"
      ],
      [
        "Ġlear",
        "ned"
      ],
      [
        "Ġf",
        "ore"
      ],
      [
        "Ġl",
        "oud"
      ],
      [
        "Ġc",
        "on"
      ],
      [
        "op",
        "le"
      ],
      [
        "Ġanimal",
        "s"
      ],
      [
        "Ġpl",
        "ace"
      ],
      [
        "Ġo",
        "w"
      ],
      [
        "Ġs",
        "orry"
      ],
      [
        "Ġy",
        "ear"
      ],
      [
        "Ġwal",
        "king"
      ],
      [
        "g",
        "ry"
      ],
      [
        "Ġf",
        "ar"
      ],
      [
        "i",
        "p"
      ],
      [
        "i",
        "es"
      ],
      [
        "Ġu",
        "nder"
      ],
      [
        "Ġsa",
        "fe"
      ],
      [
        "oo",
        "l"
      ],
      [
        "Ġgo",
        "ing"
      ],
      [
        "T",
        "om"
      ],
      [
        "ill",
        "y"
      ],
      [
        "ĠW",
        "e"
      ],
      [
        "o",
        "y"
      ],
      [
        "Ġim",
        "p"
      ],
      [
        "i",
        "ed"
      ],
      [
        "Ġn",
        "ow"
      ],
      [
        "s",
        "h"
      ],
      [
        "ĠS",
        "uddenly"
      ],
      [
        "ĠW",
        "hen"
      ],
      [
        "Ġf",
        "r"
      ],
      [
        "Ġsto",
        "pped"
      ],
      [
        "Ġnot",
        "iced"
      ],
      [
        "Ġpe",
        "ople"
      ],
      [
        "x",
        "t"
      ],
      [
        "T",
        "hat"
      ],
      [
        "Ġl",
        "ist"
      ],
      [
        "g",
        "an"
      ],
      [
        "Ġqu",
        "ick"
      ],
      [
        "a",
        "se"
      ],
      [
        "J",
        "o"
      ],
      [
        "Ġl",
        "et"
      ],
      [
        "j",
        "oy"
      ],
      [
        "Ġd",
        "el"
      ],
      [
        "Ġd",
        "an"
      ],
      [
        "T",
        "im"
      ],
      [
        "ĠA",
        "nna"
      ],
      [
        "o",
        "lly"
      ],
      [
        "Ġth",
        "ree"
      ],
      [
        "ma",
        "z"
      ],
      [
        "t",
        "hing"
      ],
      [
        "Ġa",
        "maz"
      ],
      [
        "is",
        "hed"
      ],
      [
        "i",
        "ous"
      ],
      [
        "Ġst",
        "or"
      ],
      [
        "dd",
        "ed"
      ],
      [
        "bb",
        "it"
      ],
      [
        "Ġop",
        "ened"
      ],
      [
        "s",
        "er"
      ],
      [
        "Ġe",
        "y"
      ],
      [
        "Ġw",
        "ind"
      ],
      [
        "Ġevery",
        "one"
      ],
      [
        "Ġ",
        "ide"
      ],
      [
        "Ġm",
        "a"
      ],
      [
        "e",
        "et"
      ],
      [
        "Ġv",
        "o"
      ],
      [
        "ĠJo",
        "hn"
      ],
      [
        "S",
        "uddenly"
      ],
      [
        "an",
        "ge"
      ],
      [
        "ug",
        "ht"
      ],
      [
        "Ġquick",
        "ly"
      ],
      [
        "Ġd",
        "is"
      ],
      [
        "Ġwa",
        "r"
      ],
      [
        "Ġd",
        "e"
      ],
      [
        "Ġr",
        "ed"
      ],
      [
        "Ġwh",
        "ile"
      ],
      [
        "Ġen",
        "joy"
      ],
      [
        "Ġke",
        "ep"
      ],
      [
        "Ġra",
        "bbit"
      ],
      [
        "Ġide",
        "a"
      ],
      [
        "t",
        "ing"
      ],
      [
        "Ġto",
        "w"
      ],
      [
        "Ġth",
        "r"
      ],
      [
        "Ġ",
        "G"
      ],
      [
        "Ġg",
        "reat"
      ],
      [
        "Ġgr",
        "ound"
      ],
      [
        "is",
        "y"
      ],
      [
        "Ġloo",
        "king"
      ],
      [
        "Ġwo",
        "nder"
      ],
      [
        "he",
        "s"
      ],
      [
        "um",
        "my"
      ],
      [
        "g",
        "er"
      ],
      [
        "Ġt",
        "re"
      ],
      [
        "Ġsh",
        "ould"
      ],
      [
        "Ġwor",
        "k"
      ],
      [
        "ag",
        "e"
      ],
      [
        "Ġdo",
        "or"
      ],
      [
        "em",
        "b"
      ],
      [
        "ĠB",
        "ob"
      ],
      [
        "Ġu",
        "n"
      ],
      [
        "Ġsh",
        "iny"
      ],
      [
        "Ġre",
        "pl"
      ],
      [
        "Ġbe",
        "en"
      ],
      [
        "Ġch",
        "ild"
      ],
      [
        "Ġt",
        "ur"
      ],
      [
        "Ġvo",
        "ice"
      ],
      [
        "Ġw",
        "r"
      ],
      [
        "Ġne",
        "xt"
      ],
      [
        "Ġb",
        "ed"
      ],
      [
        "Ġe",
        "ver"
      ],
      [
        "Ġs",
        "n"
      ],
      [
        "Ġm",
        "or"
      ],
      [
        "Ġbr",
        "ight"
      ],
      [
        "Ġrem",
        "emb"
      ],
      [
        "t",
        "ed"
      ],
      [
        "Ġpick",
        "ed"
      ],
      [
        "f",
        "f"
      ],
      [
        "Ġ",
        "N"
      ],
      [
        "ĠJ",
        "ane"
      ],
      [
        "by",
        "e"
      ],
      [
        "n",
        "er"
      ],
      [
        "Ġfa",
        "ce"
      ],
      [
        "Ġey",
        "es"
      ],
      [
        "h",
        "y"
      ],
      [
        "ĠD",
        "ad"
      ],
      [
        "Ġre",
        "al"
      ],
      [
        "Ġno",
        "dded"
      ],
      [
        "a",
        "k"
      ],
      [
        "Ġfore",
        "st"
      ],
      [
        "Ġa",
        "fter"
      ],
      [
        "Ġcu",
        "ri"
      ],
      [
        "u",
        "ch"
      ],
      [
        "Ġwal",
        "k"
      ],
      [
        "Ġne",
        "ar"
      ],
      [
        "Ġrepl",
        "ied"
      ],
      [
        "Ġd",
        "ra"
      ],
      [
        "Ġro",
        "ck"
      ],
      [
        "Ġgood",
        "bye"
      ],
      [
        "Ġcle",
        "an"
      ],
      [
        "Ġno",
        "ise"
      ],
      [
        "a",
        "isy"
      ],
      [
        "Ġc",
        "ry"
      ],
      [
        "Ġbe",
        "gan"
      ],
      [
        "Ġclo",
        "ser"
      ],
      [
        "a",
        "ble"
      ],
      [
        "Ġg",
        "ive"
      ],
      [
        "Ġpret",
        "ty"
      ],
      [
        "Ġs",
        "qu"
      ],
      [
        "Ġsh",
        "are"
      ],
      [
        "Ġhand",
        "s"
      ],
      [
        "Ġcuri",
        "ous"
      ],
      [
        "Ġg",
        "re"
      ],
      [
        "bb",
        "ed"
      ],
      [
        "Ġh",
        "urt"
      ],
      [
        "Ġp",
        "er"
      ],
      [
        "o",
        "ck"
      ],
      [
        "Ġf",
        "ood"
      ],
      [
        "Ġp",
        "ain"
      ],
      [
        "ĠA",
        "s"
      ],
      [
        "l",
        "ie"
      ],
      [
        "Ġp",
        "ic"
      ],
      [
        "Ġbl",
        "ue"
      ],
      [
        "ir",
        "st"
      ],
      [
        "Ġb",
        "ad"
      ],
      [
        "Ġwa",
        "it"
      ],
      [
        "Ġa",
        "pp"
      ],
      [
        "Ġs",
        "ound"
      ],
      [
        "Ġd",
        "if"
      ],
      [
        "Ġwat",
        "ched"
      ],
      [
        "Ġstr",
        "ong"
      ],
      [
        "Ġb",
        "ook"
      ],
      [
        "Ġtr",
        "uck"
      ],
      [
        "d",
        "ay"
      ],
      [
        "Ġf",
        "ish"
      ],
      [
        "Ġbe",
        "ing"
      ],
      [
        "Ġr",
        "ight"
      ],
      [
        "Ġcol",
        "or"
      ],
      [
        "ir",
        "ed"
      ],
      [
        "Ġwor",
        "ld"
      ],
      [
        "n",
        "g"
      ],
      [
        "b",
        "e"
      ],
      [
        "Ġb",
        "it"
      ],
      [
        "ĠM",
        "ia"
      ],
      [
        "Jo",
        "hn"
      ],
      [
        "le",
        "s"
      ],
      [
        "ĠJo",
        "e"
      ],
      [
        "Ġwat",
        "ch"
      ],
      [
        "Ġm",
        "ag"
      ],
      [
        "im",
        "b"
      ],
      [
        "Ġdo",
        "ll"
      ],
      [
        "Ġbec",
        "ame"
      ],
      [
        "Ġsh",
        "out"
      ],
      [
        "ĠEvery",
        "one"
      ],
      [
        "Ġcl",
        "imb"
      ],
      [
        "Ġ",
        "-"
      ],
      [
        "Ġle",
        "ave"
      ],
      [
        "Ġbo",
        "at"
      ],
      [
        "Ġthr",
        "ough"
      ],
      [
        "ll",
        "ow"
      ],
      [
        "u",
        "ll"
      ],
      [
        "Ġy",
        "ell"
      ],
      [
        "st",
        "er"
      ],
      [
        "ĠMom",
        "my"
      ],
      [
        "Ġs",
        "ure"
      ],
      [
        "Ġan",
        "gry"
      ],
      [
        "N",
        "o"
      ],
      [
        "k",
        "ay"
      ],
      [
        "Ġbut",
        "ter"
      ],
      [
        "Ġst",
        "ore"
      ],
      [
        "o",
        "on"
      ],
      [
        "Ġhe",
        "re"
      ],
      [
        "Ġm",
        "ouse"
      ],
      [
        "Ġyear",
        "s"
      ],
      [
        "Ġn",
        "ight"
      ],
      [
        "Ġho",
        "pped"
      ],
      [
        "Ġa",
        "c"
      ],
      [
        "Ġw",
        "here"
      ],
      [
        "Ġhe",
        "ad"
      ],
      [
        "ĠD",
        "aisy"
      ],
      [
        "Ġshow",
        "ed"
      ],
      [
        "Ġ",
        "R"
      ],
      [
        "re",
        "am"
      ],
      [
        "Ġcon",
        "t"
      ],
      [
        "s",
        "o"
      ],
      [
        "pp",
        "y"
      ],
      [
        "Ġr",
        "ain"
      ],
      [
        "Ġse",
        "en"
      ],
      [
        "a",
        "ched"
      ],
      [
        "Ġre",
        "ady"
      ],
      [
        "Ġfo",
        "llow"
      ],
      [
        "Ġflow",
        "ers"
      ],
      [
        "Ġt",
        "al"
      ],
      [
        "Ġf",
        "ill"
      ],
      [
        "Ġdif",
        "fe"
      ],
      [
        "Ġwh",
        "y"
      ],
      [
        "Ġwar",
        "m"
      ],
      [
        "Ġgra",
        "bbed"
      ],
      [
        "t",
        "ure"
      ],
      [
        "Ġf",
        "irst"
      ],
      [
        "Ġimp",
        "ort"
      ],
      [
        "Ġwa",
        "ved"
      ],
      [
        "Th",
        "ank"
      ],
      [
        "Ġal",
        "so"
      ],
      [
        "o",
        "l"
      ],
      [
        "Ġmag",
        "ic"
      ],
      [
        "Ġh",
        "igh"
      ],
      [
        "ĠS",
        "ue"
      ],
      [
        "Ġnam",
        "e"
      ],
      [
        "Ġjump",
        "ed"
      ],
      [
        "Ġhapp",
        "ened"
      ],
      [
        "a",
        "c"
      ],
      [
        "le",
        "ep"
      ],
      [
        "Ġu",
        "se"
      ],
      [
        "fu",
        "lly"
      ],
      [
        "z",
        "y"
      ],
      [
        "ĠS",
        "p"
      ],
      [
        "Ġdre",
        "ss"
      ],
      [
        "Ġdiffe",
        "rent"
      ],
      [
        "Ġimport",
        "ant"
      ],
      [
        "Ġre",
        "ally"
      ],
      [
        "Ġlist",
        "en"
      ],
      [
        "Ġu",
        "s"
      ],
      [
        "iz",
        "ed"
      ],
      [
        "Ġflow",
        "er"
      ],
      [
        "Ġt",
        "ired"
      ],
      [
        "ou",
        "nt"
      ],
      [
        "Ġst",
        "e"
      ],
      [
        "Ġha",
        "ving"
      ],
      [
        "Ġpa",
        "rent"
      ],
      [
        "Ġb",
        "ro"
      ],
      [
        "Ġsw",
        "eet"
      ],
      [
        "B",
        "en"
      ],
      [
        "Ġw",
        "ood"
      ],
      [
        "Ġg",
        "ame"
      ],
      [
        "Ġgra",
        "ss"
      ],
      [
        "A",
        "fter"
      ],
      [
        "S",
        "he"
      ],
      [
        "it",
        "c"
      ],
      [
        "Ġrun",
        "ning"
      ],
      [
        "Ġpic",
        "ture"
      ],
      [
        "J",
        "ack"
      ],
      [
        "Ġb",
        "a"
      ],
      [
        "Ġsurpr",
        "ise"
      ],
      [
        "ck",
        "et"
      ],
      [
        "Ġper",
        "f"
      ],
      [
        "H",
        "er"
      ],
      [
        "m",
        "er"
      ],
      [
        "Ġre",
        "ached"
      ],
      [
        "Ġdo",
        "ne"
      ],
      [
        "Ġbutter",
        "f"
      ],
      [
        "Ġb",
        "ug"
      ],
      [
        "Ġl",
        "ady"
      ],
      [
        "Ġc",
        "r"
      ],
      [
        "Ġp",
        "at"
      ],
      [
        "un",
        "ny"
      ],
      [
        "Ġshout",
        "ed"
      ],
      [
        "Ġhim",
        "self"
      ],
      [
        "Ġparent",
        "s"
      ],
      [
        "\"",
        "."
      ],
      [
        "re",
        "n"
      ],
      [
        "at",
        "her"
      ],
      [
        "le",
        "ase"
      ],
      [
        "Ġth",
        "ing"
      ],
      [
        "Ġop",
        "en"
      ],
      [
        "Mom",
        "my"
      ],
      [
        "Ġth",
        "ink"
      ],
      [
        "Ġr",
        "u"
      ],
      [
        "Ġdel",
        "ic"
      ],
      [
        "w",
        "here"
      ],
      [
        "ĠSara",
        "h"
      ],
      [
        "Ġ",
        "z"
      ],
      [
        "Ġf",
        "ro"
      ],
      [
        "Ġta",
        "st"
      ],
      [
        "i",
        "ent"
      ],
      [
        "Ġt",
        "ell"
      ],
      [
        "Ġenjoy",
        "ed"
      ],
      [
        "Ġh",
        "op"
      ],
      [
        "Ġre",
        "st"
      ],
      [
        "Ġk",
        "id"
      ],
      [
        "Ġbe",
        "h"
      ],
      [
        "Ġstor",
        "y"
      ],
      [
        "Ġcare",
        "fully"
      ],
      [
        "Ġgl",
        "ad"
      ],
      [
        "Ġfill",
        "ed"
      ],
      [
        "Ġs",
        "et"
      ],
      [
        "Ġhelp",
        "ed"
      ],
      [
        "Ġsa",
        "nd"
      ],
      [
        "Ġfi",
        "re"
      ],
      [
        "Ġon",
        "ly"
      ],
      [
        "Ġwonder",
        "ful"
      ],
      [
        "Ġchild",
        "ren"
      ],
      [
        "u",
        "ff"
      ],
      [
        "im",
        "es"
      ],
      [
        "Ġbird",
        "s"
      ],
      [
        "m",
        "ore"
      ],
      [
        "ĠA",
        "fter"
      ],
      [
        "Ġany",
        "more"
      ],
      [
        "Ġcl",
        "a"
      ],
      [
        "ll",
        "ed"
      ],
      [
        "Ġmor",
        "ning"
      ],
      [
        "Ġgre",
        "en"
      ],
      [
        "Ġsl",
        "ow"
      ],
      [
        "t",
        "h"
      ],
      [
        "u",
        "ed"
      ],
      [
        "Ġt",
        "ra"
      ],
      [
        "Ġc",
        "reat"
      ],
      [
        "Ġhapp",
        "ily"
      ],
      [
        "e",
        "st"
      ],
      [
        "Ġd",
        "ark"
      ],
      [
        "Ġst",
        "ick"
      ],
      [
        "Ġwor",
        "ked"
      ],
      [
        "C",
        "an"
      ],
      [
        "p",
        "er"
      ],
      [
        "Ġf",
        "ull"
      ],
      [
        "at",
        "ion"
      ],
      [
        "am",
        "a"
      ],
      [
        "ss",
        "ed"
      ],
      [
        "Ġcom",
        "ing"
      ],
      [
        "Ġp",
        "ie"
      ],
      [
        "ĠSp",
        "ot"
      ],
      [
        "Ġto",
        "p"
      ],
      [
        "Ġcat",
        "ch"
      ],
      [
        "Ġl",
        "ight"
      ],
      [
        "is",
        "s"
      ],
      [
        "Ġsm",
        "ell"
      ],
      [
        "Ġar",
        "ri"
      ],
      [
        "u",
        "l"
      ],
      [
        "Ġk",
        "itc"
      ],
      [
        "ĠM",
        "olly"
      ],
      [
        "Ġkitc",
        "hen"
      ],
      [
        "ĠI",
        "n"
      ],
      [
        "Ġas",
        "k"
      ],
      [
        "Ġwor",
        "ry"
      ],
      [
        "Ġfa",
        "v"
      ],
      [
        "ĠE",
        "m"
      ],
      [
        "re",
        "l"
      ],
      [
        "Ġm",
        "on"
      ],
      [
        "a",
        "ught"
      ],
      [
        "Ġbr",
        "other"
      ],
      [
        "Ġstr",
        "ange"
      ],
      [
        "L",
        "ook"
      ],
      [
        "Ġt",
        "all"
      ],
      [
        "Ġher",
        "self"
      ],
      [
        "Ġbutterf",
        "ly"
      ],
      [
        "Ġfro",
        "g"
      ],
      [
        "Ġa",
        "m"
      ],
      [
        "Ġd",
        "in"
      ],
      [
        "Ġsp",
        "ot"
      ],
      [
        "Ġunder",
        "st"
      ],
      [
        "k",
        "en"
      ],
      [
        "ay",
        "be"
      ],
      [
        "Ġfor",
        "g"
      ],
      [
        "Ġa",
        "ble"
      ],
      [
        "nd",
        "ma"
      ],
      [
        "ĠS",
        "ally"
      ],
      [
        "Ġsurpr",
        "ised"
      ],
      [
        "Ġarri",
        "ved"
      ],
      [
        "Ġc",
        "ra"
      ],
      [
        "Ġd",
        "ri"
      ],
      [
        "Ġfl",
        "o"
      ],
      [
        "S",
        "ara"
      ],
      [
        "ĠL",
        "et"
      ],
      [
        "Ġamaz",
        "ing"
      ],
      [
        "ard",
        "s"
      ],
      [
        "Ġat",
        "e"
      ],
      [
        "Ġmo",
        "ve"
      ],
      [
        "in",
        "ally"
      ],
      [
        "re",
        "ed"
      ],
      [
        "or",
        "ing"
      ],
      [
        "Ġso",
        "ft"
      ],
      [
        "Ġb",
        "unny"
      ],
      [
        "Ġd",
        "r"
      ],
      [
        "Ġs",
        "at"
      ],
      [
        "Ġme",
        "an"
      ],
      [
        "Ġpo",
        "nd"
      ],
      [
        "Ġen",
        "ough"
      ],
      [
        "s",
        "y"
      ],
      [
        "in",
        "ed"
      ],
      [
        "Ġo",
        "kay"
      ],
      [
        "Ġy",
        "ummy"
      ],
      [
        "D",
        "on"
      ],
      [
        "s",
        "p"
      ],
      [
        "Ġu",
        "sed"
      ],
      [
        "Ġfin",
        "ished"
      ],
      [
        "Ġl",
        "ess"
      ],
      [
        "Ġdre",
        "am"
      ],
      [
        "Ġma",
        "king"
      ],
      [
        "Ġkid",
        "s"
      ],
      [
        "W",
        "e"
      ],
      [
        "i",
        "ver"
      ],
      [
        "Ġm",
        "other"
      ],
      [
        "ar",
        "ing"
      ],
      [
        "ro",
        "om"
      ],
      [
        "Ġrememb",
        "ered"
      ],
      [
        "Ġh",
        "id"
      ],
      [
        "ĠT",
        "h"
      ],
      [
        "ĠT",
        "o"
      ],
      [
        "Ġfe",
        "ll"
      ],
      [
        "Ġpr",
        "in"
      ],
      [
        "Ġlear",
        "n"
      ],
      [
        "Tim",
        "my"
      ],
      [
        "Ġtre",
        "es"
      ],
      [
        "Ġcont",
        "in"
      ],
      [
        "Ġha",
        "s"
      ],
      [
        "Ġdelic",
        "ious"
      ],
      [
        "ar",
        "s"
      ],
      [
        "ĠT",
        "hat"
      ],
      [
        "Ġfe",
        "w"
      ],
      [
        "Ġperf",
        "ect"
      ],
      [
        "Ġpie",
        "ce"
      ],
      [
        "Ġs",
        "ing"
      ],
      [
        "Ġp",
        "re"
      ],
      [
        "at",
        "ed"
      ],
      [
        "at",
        "er"
      ],
      [
        "Ġbeh",
        "ind"
      ],
      [
        "b",
        "er"
      ],
      [
        "Ġs",
        "leep"
      ],
      [
        "Ġp",
        "rom"
      ],
      [
        "ig",
        "n"
      ],
      [
        "Ġst",
        "op"
      ],
      [
        "Ġsw",
        "im"
      ],
      [
        "Ġyell",
        "ow"
      ],
      [
        "'",
        "re"
      ],
      [
        "A",
        "s"
      ],
      [
        "il",
        "a"
      ],
      [
        "Ġget",
        "ting"
      ],
      [
        "Ġd",
        "ro"
      ],
      [
        "Ġtry",
        "ing"
      ],
      [
        "A",
        "t"
      ],
      [
        "H",
        "is"
      ],
      [
        "Ġ",
        "ve"
      ],
      [
        "im",
        "my"
      ],
      [
        "Ġc",
        "ook"
      ],
      [
        "Ġli",
        "on"
      ],
      [
        "Ġfun",
        "ny"
      ],
      [
        "Ġany",
        "thing"
      ],
      [
        "Ġa",
        "ir"
      ],
      [
        "Ġgo",
        "ne"
      ],
      [
        "as",
        "ure"
      ],
      [
        "Ġow",
        "n"
      ],
      [
        "Ġreal",
        "ized"
      ],
      [
        "Ġwood",
        "s"
      ],
      [
        "Ġfo",
        "x"
      ],
      [
        "Ġha",
        "ir"
      ],
      [
        "Ġcontin",
        "ued"
      ],
      [
        "r",
        "ed"
      ],
      [
        "s",
        "c"
      ],
      [
        "ro",
        "ss"
      ],
      [
        "Ġjo",
        "y"
      ],
      [
        "Ġsl",
        "ide"
      ],
      [
        "Ġfriend",
        "ly"
      ],
      [
        "Ġfa",
        "ir"
      ],
      [
        "c",
        "ed"
      ],
      [
        "Ġhe",
        "ld"
      ],
      [
        "The",
        "n"
      ],
      [
        "Ġle",
        "ft"
      ],
      [
        "Ġho",
        "le"
      ],
      [
        "Ġpu",
        "ppy"
      ],
      [
        "Ġfin",
        "ally"
      ],
      [
        "Ġdra",
        "w"
      ],
      [
        "Ġde",
        "ep"
      ],
      [
        "g",
        "on"
      ],
      [
        "Ġt",
        "ri"
      ],
      [
        "Ġto",
        "uch"
      ],
      [
        "Ġy",
        "es"
      ],
      [
        "Ġwr",
        "ong"
      ],
      [
        "b",
        "o"
      ],
      [
        "i",
        "ke"
      ],
      [
        "l",
        "ing"
      ],
      [
        "Ġm",
        "ess"
      ],
      [
        "Ġp",
        "art"
      ],
      [
        "ĠThe",
        "re"
      ],
      [
        "Ġco",
        "ld"
      ],
      [
        "Ġg",
        "ent"
      ],
      [
        "ir",
        "rel"
      ],
      [
        "Ġneed",
        "ed"
      ],
      [
        "Ġfollow",
        "ed"
      ],
      [
        "u",
        "ally"
      ],
      [
        "i",
        "ch"
      ],
      [
        "Ġp",
        "us"
      ],
      [
        "pp",
        "ing"
      ],
      [
        "ic",
        "y"
      ],
      [
        "as",
        "k"
      ],
      [
        "c",
        "o"
      ],
      [
        "Ġb",
        "ow"
      ],
      [
        "Ġc",
        "ut"
      ],
      [
        "Ġdo",
        "ing"
      ],
      [
        "Ġfi",
        "x"
      ],
      [
        "Ġb",
        "at"
      ],
      [
        "Ġmom",
        "ent"
      ],
      [
        "Ġleave",
        "s"
      ],
      [
        "'",
        "ll"
      ],
      [
        "Ġs",
        "ec"
      ],
      [
        "ĠJ",
        "ill"
      ],
      [
        "Ġag",
        "reed"
      ],
      [
        "Ġbl",
        "ock"
      ],
      [
        "Ġlook",
        "s"
      ],
      [
        "Ġcom",
        "p"
      ],
      [
        "et",
        "er"
      ],
      [
        "Ġpret",
        "end"
      ],
      [
        "a",
        "v"
      ],
      [
        "Ġ",
        "K"
      ],
      [
        "Ġe",
        "l"
      ],
      [
        "Ġbr",
        "ought"
      ],
      [
        "Ġsqu",
        "irrel"
      ],
      [
        "a",
        "ir"
      ],
      [
        "Ġ",
        "ice"
      ],
      [
        "one",
        "y"
      ],
      [
        "Ġbu",
        "y"
      ],
      [
        "Ġse",
        "ar"
      ],
      [
        "Ġthan",
        "k"
      ],
      [
        "ĠG",
        "ra"
      ],
      [
        "Ġ",
        "our"
      ],
      [
        "ie",
        "ld"
      ],
      [
        "Ġwind",
        "ow"
      ],
      [
        "Ġmagic",
        "al"
      ],
      [
        "H",
        "ell"
      ],
      [
        "W",
        "ow"
      ],
      [
        "Ġc",
        "ool"
      ],
      [
        "Ġbe",
        "e"
      ],
      [
        "Ġsh",
        "o"
      ],
      [
        "Ġwh",
        "ite"
      ],
      [
        "Ġv",
        "is"
      ],
      [
        "ĠN",
        "ow"
      ],
      [
        "Ġba",
        "by"
      ],
      [
        "Ġfav",
        "or"
      ],
      [
        "Hell",
        "o"
      ],
      [
        "Ġt",
        "ight"
      ],
      [
        "Ġh",
        "ill"
      ],
      [
        "Ġste",
        "pped"
      ],
      [
        "Ġless",
        "on"
      ],
      [
        "Ġfavor",
        "ite"
      ],
      [
        "m",
        "ed"
      ],
      [
        "Ġc",
        "ake"
      ],
      [
        "Ġm",
        "ar"
      ],
      [
        "Ġbu",
        "ild"
      ],
      [
        "Ġstay",
        "ed"
      ],
      [
        "S",
        "am"
      ],
      [
        "p",
        "h"
      ],
      [
        "Ġan",
        "other"
      ],
      [
        "Ġsome",
        "one"
      ],
      [
        "F",
        "rom"
      ],
      [
        "Ġd",
        "uck"
      ],
      [
        "Ġsw",
        "ing"
      ],
      [
        "as",
        "h"
      ],
      [
        "Ġfly",
        "ing"
      ],
      [
        "Ġdin",
        "ner"
      ],
      [
        "s",
        "ic"
      ],
      [
        "z",
        "e"
      ],
      [
        "Ġwas",
        "n"
      ],
      [
        "en",
        "ny"
      ],
      [
        "Ġb",
        "ag"
      ],
      [
        "Ġdo",
        "es"
      ],
      [
        "Ġmu",
        "sic"
      ],
      [
        "m",
        "e"
      ],
      [
        "am",
        "p"
      ],
      [
        "Ġre",
        "ad"
      ],
      [
        "Ġevery",
        "thing"
      ],
      [
        "Ġunderst",
        "and"
      ],
      [
        "Ġsp",
        "ark"
      ],
      [
        "Ġel",
        "se"
      ],
      [
        "m",
        "b"
      ],
      [
        "Ġh",
        "un"
      ],
      [
        "Ġsp",
        "l"
      ],
      [
        "Th",
        "is"
      ],
      [
        "Ġamaz",
        "ed"
      ],
      [
        "Ġlo",
        "st"
      ],
      [
        "Ġm",
        "at"
      ],
      [
        "Ġm",
        "et"
      ],
      [
        "ce",
        "ss"
      ],
      [
        "Ġs",
        "ong"
      ],
      [
        "Ġca",
        "nd"
      ],
      [
        "ĠTom",
        "my"
      ],
      [
        "Ġclo",
        "se"
      ],
      [
        "vent",
        "ually"
      ],
      [
        "Ġfar",
        "mer"
      ],
      [
        "itt",
        "en"
      ],
      [
        "ĠC",
        "an"
      ],
      [
        "l",
        "ice"
      ],
      [
        "o",
        "om"
      ],
      [
        "s",
        "et"
      ],
      [
        "Ġbe",
        "l"
      ],
      [
        "Ġexpl",
        "oring"
      ],
      [
        "Ġta",
        "ble"
      ],
      [
        "Ġslow",
        "ly"
      ],
      [
        "A",
        "nna"
      ],
      [
        "it",
        "ing"
      ],
      [
        "Ġbe",
        "ach"
      ],
      [
        "Ġlaug",
        "h"
      ],
      [
        "i",
        "re"
      ],
      [
        "Ġb",
        "re"
      ],
      [
        "am",
        "es"
      ],
      [
        "Ġmo",
        "st"
      ],
      [
        "Ġball",
        "oon"
      ],
      [
        "Ġforg",
        "ot"
      ],
      [
        "Ġjo",
        "b"
      ],
      [
        "ct",
        "or"
      ],
      [
        "Ġp",
        "et"
      ],
      [
        "Ġbig",
        "ger"
      ],
      [
        "ĠA",
        "ll"
      ],
      [
        "Ġtur",
        "n"
      ],
      [
        "Ġpain",
        "t"
      ],
      [
        "Ġw",
        "ished"
      ],
      [
        "ow",
        "er"
      ],
      [
        "Ġcl",
        "oud"
      ],
      [
        "b",
        "r"
      ],
      [
        "Ġl",
        "ake"
      ],
      [
        "Ġhe",
        "ar"
      ],
      [
        "Ġd",
        "ir"
      ],
      [
        "Ġbe",
        "lie"
      ],
      [
        "bb",
        "y"
      ],
      [
        "m",
        "ent"
      ],
      [
        "r",
        "ow"
      ],
      [
        "in",
        "s"
      ],
      [
        "Ġc",
        "ount"
      ],
      [
        "Ġm",
        "ight"
      ],
      [
        "s",
        "w"
      ],
      [
        "Ġs",
        "u"
      ],
      [
        "uff",
        "y"
      ],
      [
        "e",
        "ared"
      ],
      [
        "g",
        "le"
      ],
      [
        "Ġf",
        "ield"
      ],
      [
        "Ġg",
        "u"
      ],
      [
        "Ġbro",
        "ken"
      ],
      [
        "Ġf",
        "ur"
      ],
      [
        "an",
        "ce"
      ],
      [
        "Ġan",
        "sw"
      ],
      [
        "Ġfast",
        "er"
      ],
      [
        "Ġw",
        "on"
      ],
      [
        "Ġwor",
        "d"
      ],
      [
        "Ġmu",
        "st"
      ],
      [
        "Ġpo",
        "in"
      ],
      [
        "Ġr",
        "ide"
      ],
      [
        "Ġj",
        "u"
      ],
      [
        "Ġwa",
        "ited"
      ],
      [
        "ĠBen",
        "ny"
      ],
      [
        "Ġac",
        "ross"
      ],
      [
        "Ġwa",
        "ll"
      ],
      [
        "Ġc",
        "e"
      ],
      [
        "an",
        "c"
      ],
      [
        "Ġar",
        "m"
      ],
      [
        "ĠA",
        "my"
      ],
      [
        "Ġcar",
        "s"
      ],
      [
        "Ġho",
        "ld"
      ],
      [
        "Ġjo",
        "in"
      ],
      [
        "Ġtur",
        "ned"
      ],
      [
        "Ġp",
        "lease"
      ],
      [
        "il",
        "ing"
      ],
      [
        "ĠW",
        "hat"
      ],
      [
        "ĠB",
        "illy"
      ],
      [
        "a",
        "st"
      ],
      [
        "Ġb",
        "ar"
      ],
      [
        "le",
        "ph"
      ],
      [
        "o",
        "s"
      ],
      [
        "z",
        "z"
      ],
      [
        "Ġs",
        "ide"
      ],
      [
        "en",
        "ce"
      ],
      [
        "Ġne",
        "igh"
      ],
      [
        "Ġbl",
        "ack"
      ],
      [
        "Ġtow",
        "ards"
      ],
      [
        "Ġneigh",
        "b"
      ],
      [
        "m",
        "ing"
      ],
      [
        "Ġs",
        "uch"
      ],
      [
        "Ġw",
        "he"
      ],
      [
        "Ġh",
        "or"
      ],
      [
        "Ġg",
        "i"
      ],
      [
        "ke",
        "y"
      ],
      [
        "Ġsh",
        "ared"
      ],
      [
        "Ġadventure",
        "s"
      ],
      [
        "Ġprom",
        "ised"
      ],
      [
        "Ġblock",
        "s"
      ],
      [
        "O",
        "h"
      ],
      [
        "ou",
        "p"
      ],
      [
        "Ġc",
        "ried"
      ],
      [
        "Ġp",
        "ro"
      ],
      [
        "Ġlong",
        "er"
      ],
      [
        "Ġlist",
        "ened"
      ],
      [
        "Ġs",
        "illy"
      ],
      [
        "Ġca",
        "st"
      ],
      [
        "Ġal",
        "one"
      ],
      [
        "Ġsec",
        "ret"
      ],
      [
        "a",
        "pp"
      ],
      [
        "Ġh",
        "at"
      ],
      [
        "Ġst",
        "u"
      ],
      [
        "ĠL",
        "ila"
      ],
      [
        "Ġsomet",
        "imes"
      ],
      [
        "Ġcu",
        "p"
      ],
      [
        "Ġche",
        "ered"
      ],
      [
        "Ġs",
        "uddenly"
      ],
      [
        "Ġdad",
        "dy"
      ],
      [
        "Ġrememb",
        "er"
      ],
      [
        "ĠDad",
        "dy"
      ],
      [
        "ĠTh",
        "is"
      ],
      [
        "Ġvis",
        "it"
      ],
      [
        "W",
        "hy"
      ],
      [
        "g",
        "g"
      ],
      [
        "Ġp",
        "ink"
      ],
      [
        "ve",
        "s"
      ],
      [
        "Ġwor",
        "ried"
      ],
      [
        "Ġcla",
        "pped"
      ],
      [
        "F",
        "inally"
      ],
      [
        "Ġh",
        "ot"
      ],
      [
        "Ġhapp",
        "en"
      ],
      [
        "Ġor",
        "ange"
      ],
      [
        "Ġow",
        "l"
      ],
      [
        "av",
        "y"
      ],
      [
        "op",
        "e"
      ],
      [
        "Ġother",
        "s"
      ],
      [
        "Ġdis",
        "app"
      ],
      [
        "Ġclimb",
        "ed"
      ],
      [
        "Ġbelie",
        "ve"
      ],
      [
        "e",
        "e"
      ],
      [
        "Ġsc",
        "ary"
      ],
      [
        "ĠD",
        "o"
      ],
      [
        "ne",
        "y"
      ],
      [
        "ot",
        "t"
      ],
      [
        "Ġta",
        "il"
      ],
      [
        "Ġbook",
        "s"
      ],
      [
        "Ġflo",
        "or"
      ],
      [
        "f",
        "ort"
      ],
      [
        "Ġat",
        "t"
      ],
      [
        "Ġsee",
        "med"
      ],
      [
        "i",
        "et"
      ],
      [
        "i",
        "pped"
      ],
      [
        "Ġsm",
        "o"
      ],
      [
        "Ġre",
        "lie"
      ],
      [
        "ra",
        "ct"
      ],
      [
        "Ġlo",
        "ne"
      ],
      [
        "Ġcol",
        "our"
      ],
      [
        "Ġtal",
        "k"
      ],
      [
        "Ġhun",
        "gry"
      ],
      [
        "Ġh",
        "ide"
      ],
      [
        "Ġc",
        "or"
      ],
      [
        "Ġr",
        "iver"
      ],
      [
        "Ġpl",
        "ant"
      ],
      [
        "and",
        "y"
      ],
      [
        "Ġtre",
        "asure"
      ],
      [
        "Ġw",
        "et"
      ],
      [
        "ain",
        "ed"
      ],
      [
        "Ġal",
        "ong"
      ],
      [
        "as",
        "ed"
      ],
      [
        "Ġdan",
        "ger"
      ],
      [
        "Ġbre",
        "ak"
      ],
      [
        "L",
        "ucy"
      ],
      [
        "Ġsa",
        "me"
      ],
      [
        "Ġsh",
        "ap"
      ],
      [
        "Ġj",
        "e"
      ],
      [
        "us",
        "h"
      ],
      [
        "Ġdra",
        "gon"
      ],
      [
        "Ġlone",
        "ly"
      ],
      [
        "d",
        "er"
      ],
      [
        "e",
        "k"
      ],
      [
        "ed",
        "dy"
      ],
      [
        "Ġyou",
        "ng"
      ],
      [
        "ch",
        "ool"
      ],
      [
        "ĠM",
        "ary"
      ],
      [
        "ĠF",
        "l"
      ],
      [
        "Ġcolor",
        "s"
      ],
      [
        "Ġh",
        "ig"
      ],
      [
        "Ġhe",
        "avy"
      ],
      [
        "le",
        "ss"
      ],
      [
        "or",
        "m"
      ],
      [
        "on",
        "s"
      ],
      [
        "fu",
        "sed"
      ],
      [
        "Ġhelp",
        "ing"
      ],
      [
        "Ġgr",
        "ow"
      ],
      [
        "Ġmor",
        "al"
      ],
      [
        "Ġ",
        "3"
      ],
      [
        "itt",
        "y"
      ],
      [
        "Ġse",
        "es"
      ],
      [
        "Ġpu",
        "lled"
      ],
      [
        "H",
        "i"
      ],
      [
        "Ġpo",
        "cket"
      ],
      [
        "Ġnear",
        "by"
      ],
      [
        "Ġf",
        "ight"
      ],
      [
        "Ġst",
        "one"
      ],
      [
        "Ġcl",
        "ot"
      ],
      [
        "Ġpicture",
        "s"
      ],
      [
        "w",
        "eet"
      ],
      [
        "Ġo",
        "b"
      ],
      [
        "ri",
        "es"
      ],
      [
        "Ġsh",
        "op"
      ],
      [
        "Ġcast",
        "le"
      ],
      [
        "Ġrelie",
        "ved"
      ],
      [
        "Ġclot",
        "hes"
      ],
      [
        "Ġt",
        "reat"
      ],
      [
        "Ġs",
        "chool"
      ],
      [
        "Ġb",
        "ott"
      ],
      [
        "Ġsa",
        "il"
      ],
      [
        "el",
        "y"
      ],
      [
        "Ġli",
        "ving"
      ],
      [
        "Ġte",
        "ac"
      ],
      [
        "A",
        "nd"
      ],
      [
        "el",
        "c"
      ],
      [
        "um",
        "b"
      ],
      [
        "Ġch",
        "o"
      ],
      [
        "Ġqu",
        "iet"
      ],
      [
        "Ġcolor",
        "ful"
      ],
      [
        "Ġgent",
        "le"
      ],
      [
        "i",
        "x"
      ],
      [
        "Ġt",
        "iny"
      ],
      [
        "Ġe",
        "leph"
      ],
      [
        "uck",
        "y"
      ],
      [
        "Ġpa",
        "per"
      ],
      [
        "Ġeleph",
        "ant"
      ],
      [
        "t",
        "hy"
      ],
      [
        "Ġm",
        "oney"
      ],
      [
        "Ġn",
        "ap"
      ],
      [
        "Ġdo",
        "ctor"
      ],
      [
        "Ġj",
        "our"
      ],
      [
        "Ġbu",
        "cket"
      ],
      [
        "ion",
        "s"
      ],
      [
        "Ġtow",
        "n"
      ],
      [
        "Ġpiece",
        "s"
      ],
      [
        "Ġp",
        "ers"
      ],
      [
        "Ġevery",
        "where"
      ],
      [
        "ĠEm",
        "ma"
      ],
      [
        "Ġhig",
        "her"
      ],
      [
        "Ġs",
        "it"
      ],
      [
        "Ġp",
        "ig"
      ],
      [
        "Ġst",
        "re"
      ],
      [
        "Ġwith",
        "out"
      ],
      [
        "Ġca",
        "ve"
      ],
      [
        "Ġclo",
        "sed"
      ],
      [
        "Ġb",
        "ike"
      ],
      [
        "is",
        "ter"
      ],
      [
        "ĠJ",
        "immy"
      ],
      [
        "Ġca",
        "ught"
      ],
      [
        "Ġsn",
        "ow"
      ],
      [
        "Ġcook",
        "ies"
      ],
      [
        "l",
        "f"
      ],
      [
        "re",
        "w"
      ],
      [
        "Ġst",
        "and"
      ],
      [
        "Ġla",
        "nd"
      ],
      [
        "Ġtra",
        "in"
      ],
      [
        "Ġmon",
        "ster"
      ],
      [
        "B",
        "ob"
      ],
      [
        "ne",
        "ver"
      ],
      [
        "or",
        "ed"
      ],
      [
        "Ġr",
        "ace"
      ],
      [
        "Ġse",
        "a"
      ],
      [
        "Ġf",
        "all"
      ],
      [
        "Ġd",
        "es"
      ],
      [
        "Ġre",
        "l"
      ],
      [
        "Ġexc",
        "iting"
      ],
      [
        "Ġlike",
        "s"
      ],
      [
        "Ġeat",
        "ing"
      ],
      [
        "Ġf",
        "ree"
      ],
      [
        "Ġp",
        "urp"
      ],
      [
        "Ġbu",
        "s"
      ],
      [
        "Ġbl",
        "ank"
      ],
      [
        "Ġmo",
        "ved"
      ],
      [
        "Ġdro",
        "ve"
      ],
      [
        "Ġbat",
        "h"
      ],
      [
        "M",
        "ax"
      ],
      [
        "u",
        "it"
      ],
      [
        "Ġto",
        "day"
      ],
      [
        "Ġhe",
        "art"
      ],
      [
        "is",
        "es"
      ],
      [
        "Ġsn",
        "ack"
      ],
      [
        "M",
        "aybe"
      ],
      [
        "Ġpl",
        "an"
      ],
      [
        "Ġwe",
        "ar"
      ],
      [
        "Ġre",
        "ach"
      ],
      [
        "Ġk",
        "ite"
      ],
      [
        "Ġgr",
        "ate"
      ],
      [
        "ĠSo",
        "on"
      ],
      [
        "Ġfair",
        "y"
      ],
      [
        "Ġword",
        "s"
      ],
      [
        "Ġteac",
        "her"
      ],
      [
        "Ġpurp",
        "le"
      ],
      [
        "M",
        "olly"
      ],
      [
        "ou",
        "n"
      ],
      [
        "Ġm",
        "in"
      ],
      [
        "Ġp",
        "ack"
      ],
      [
        "ĠM",
        "ama"
      ],
      [
        "Ġgra",
        "ndma"
      ],
      [
        "Ġblank",
        "et"
      ],
      [
        "Ġs",
        "ister"
      ],
      [
        "Ġw",
        "elc"
      ],
      [
        "Ġh",
        "ar"
      ],
      [
        "Ġc",
        "ream"
      ],
      [
        "Ġn",
        "aught"
      ],
      [
        "Ġta",
        "king"
      ],
      [
        "Ġsmile",
        "s"
      ],
      [
        "aught",
        "er"
      ],
      [
        "Ġgrate",
        "ful"
      ],
      [
        "D",
        "o"
      ],
      [
        "b",
        "ble"
      ],
      [
        "p",
        "e"
      ],
      [
        "w",
        "ard"
      ],
      [
        "y",
        "ard"
      ],
      [
        "Ġmake",
        "s"
      ],
      [
        "Åĵ",
        "I"
      ],
      [
        "Ġdis",
        "co"
      ],
      [
        "Ġhe",
        "al"
      ],
      [
        "le",
        "br"
      ],
      [
        "Ġth",
        "ough"
      ],
      [
        "ver",
        "ed"
      ],
      [
        "ĠM",
        "r"
      ],
      [
        "Ġpart",
        "y"
      ],
      [
        "Ġcand",
        "y"
      ],
      [
        "Ġce",
        "lebr"
      ],
      [
        "Ġdanger",
        "ous"
      ],
      [
        "in",
        "ing"
      ],
      [
        "Ġback",
        "yard"
      ],
      [
        "Ġwo",
        "ke"
      ],
      [
        "un",
        "ch"
      ],
      [
        "Ġre",
        "t"
      ],
      [
        "Ġw",
        "ise"
      ],
      [
        "Ġm",
        "ix"
      ],
      [
        "Ġp",
        "ower"
      ],
      [
        "Ġfr",
        "uit"
      ],
      [
        "ĠIn",
        "side"
      ],
      [
        "Ġjour",
        "ney"
      ],
      [
        "Ġnaught",
        "y"
      ],
      [
        "Ġc",
        "our"
      ],
      [
        "et",
        "e"
      ],
      [
        "Ġco",
        "ll"
      ],
      [
        "Ġlaug",
        "hing"
      ],
      [
        "Ġret",
        "ur"
      ],
      [
        "a",
        "il"
      ],
      [
        "p",
        "a"
      ],
      [
        "r",
        "ound"
      ],
      [
        "Ġb",
        "ite"
      ],
      [
        "Ġb",
        "ask"
      ],
      [
        "Ġst",
        "uck"
      ],
      [
        "Ġup",
        "set"
      ],
      [
        "Ġli",
        "fe"
      ],
      [
        "Ġdir",
        "ty"
      ],
      [
        "Ġbask",
        "et"
      ],
      [
        "Ġg",
        "ather"
      ],
      [
        "Ġdan",
        "ce"
      ],
      [
        "Ġb",
        "oun"
      ],
      [
        "Ġp",
        "en"
      ],
      [
        "pp",
        "er"
      ],
      [
        "Ġsm",
        "art"
      ],
      [
        "Ġwould",
        "n"
      ],
      [
        "i",
        "ble"
      ],
      [
        "Ġd",
        "ist"
      ],
      [
        "ig",
        "g"
      ],
      [
        "ad",
        "ow"
      ],
      [
        "Ġnot",
        "hing"
      ],
      [
        "Ġmy",
        "ster"
      ],
      [
        "Ġdel",
        "ight"
      ],
      [
        "Ġcry",
        "ing"
      ],
      [
        "c",
        "ing"
      ],
      [
        "h",
        "o"
      ],
      [
        "Ġday",
        "s"
      ],
      [
        "Ġsm",
        "iling"
      ],
      [
        "Ġsp",
        "r"
      ],
      [
        "Ġapp",
        "le"
      ],
      [
        "Ġsho",
        "es"
      ],
      [
        "Ġju",
        "ice"
      ],
      [
        "Ġcour",
        "se"
      ],
      [
        "d",
        "e"
      ],
      [
        "i",
        "er"
      ],
      [
        "Ġc",
        "ou"
      ],
      [
        "Ġp",
        "ract"
      ],
      [
        "ir",
        "t"
      ],
      [
        "Ġsw",
        "am"
      ],
      [
        "Ġcreat",
        "ure"
      ],
      [
        "u",
        "ched"
      ],
      [
        "Ġto",
        "uched"
      ],
      [
        "it",
        "ch"
      ],
      [
        "Ġd",
        "aughter"
      ],
      [
        "Ġin",
        "st"
      ],
      [
        "Ġe",
        "ventually"
      ],
      [
        "Ġle",
        "a"
      ],
      [
        "ep",
        "end"
      ],
      [
        "Ġv",
        "ill"
      ],
      [
        "Ġpre",
        "s"
      ],
      [
        "Ġin",
        "c"
      ],
      [
        "Ġwe",
        "ll"
      ],
      [
        "ĠW",
        "ith"
      ],
      [
        "Ġsun",
        "ny"
      ],
      [
        "Ġad",
        "m"
      ],
      [
        "ount",
        "ain"
      ],
      [
        "l",
        "a"
      ],
      [
        "Ġp",
        "ot"
      ],
      [
        "Ġbu",
        "sh"
      ],
      [
        "Ġcr",
        "ay"
      ],
      [
        "Ġmin",
        "ut"
      ],
      [
        "O",
        "K"
      ],
      [
        "ne",
        "ss"
      ],
      [
        "Ġth",
        "in"
      ],
      [
        "itt",
        "ing"
      ],
      [
        "ĠT",
        "weet"
      ],
      [
        "Ġim",
        "ag"
      ],
      [
        "E",
        "very"
      ],
      [
        "Ġs",
        "ign"
      ],
      [
        "Ġw",
        "ings"
      ],
      [
        "Ġo",
        "nt"
      ],
      [
        "Ġbu",
        "sy"
      ],
      [
        "our",
        "s"
      ],
      [
        "Ġsear",
        "ch"
      ],
      [
        "Ġont",
        "o"
      ],
      [
        "Ġg",
        "if"
      ],
      [
        "Ġso",
        "l"
      ],
      [
        "Ġpl",
        "ane"
      ],
      [
        "Ġsc",
        "ream"
      ],
      [
        "Ġbr",
        "ing"
      ],
      [
        "Ġpat",
        "h"
      ],
      [
        "Ġspot",
        "ted"
      ],
      [
        "ĠJ",
        "ake"
      ],
      [
        "Ġhug",
        "e"
      ],
      [
        "Ġpe",
        "ace"
      ],
      [
        "Ġbel",
        "ong"
      ],
      [
        "r",
        "ot"
      ],
      [
        "nd",
        "pa"
      ],
      [
        "Ġm",
        "ark"
      ],
      [
        "Ġg",
        "ames"
      ],
      [
        "Ġwh",
        "ist"
      ],
      [
        "Ġtr",
        "ou"
      ],
      [
        "Ġtast",
        "y"
      ],
      [
        "Ġsing",
        "ing"
      ],
      [
        "Ġpus",
        "hed"
      ],
      [
        "ĠFl",
        "uffy"
      ],
      [
        "or",
        "row"
      ],
      [
        "Ġwant",
        "s"
      ],
      [
        "Ġsp",
        "ent"
      ],
      [
        "Ġexpl",
        "ained"
      ],
      [
        "Ġpu",
        "ll"
      ],
      [
        "Ġdoll",
        "s"
      ],
      [
        "Ġsmo",
        "oth"
      ],
      [
        "Ġpres",
        "ent"
      ],
      [
        "c",
        "le"
      ],
      [
        "Ġc",
        "ir"
      ],
      [
        "Ġsa",
        "ck"
      ],
      [
        "Ġe",
        "ar"
      ],
      [
        "Ġsh",
        "ining"
      ],
      [
        "Ġpa",
        "st"
      ],
      [
        "Ġwatch",
        "ing"
      ],
      [
        "Ġprin",
        "cess"
      ],
      [
        "Ġswim",
        "ming"
      ],
      [
        "p",
        "ed"
      ],
      [
        "re",
        "st"
      ],
      [
        "Ġst",
        "ars"
      ],
      [
        "Ġk",
        "itten"
      ],
      [
        "Ġme",
        "et"
      ],
      [
        "Ġsun",
        "sh"
      ],
      [
        "Ġfore",
        "ver"
      ],
      [
        "Tom",
        "my"
      ],
      [
        "Ġstor",
        "ies"
      ],
      [
        "Ġcra",
        "w"
      ],
      [
        "Ġsunsh",
        "ine"
      ],
      [
        "e",
        "rest"
      ],
      [
        "f",
        "ish"
      ],
      [
        "Ġs",
        "uc"
      ],
      [
        "Ġs",
        "itting"
      ],
      [
        "Ġb",
        "reat"
      ],
      [
        "Ġf",
        "ig"
      ],
      [
        "Ġsa",
        "ng"
      ],
      [
        "on",
        "t"
      ],
      [
        "out",
        "h"
      ],
      [
        "Ġpo",
        "l"
      ],
      [
        "Ġint",
        "erest"
      ],
      [
        "Ġfr",
        "ont"
      ],
      [
        "Ġbro",
        "ke"
      ],
      [
        "O",
        "kay"
      ],
      [
        "e",
        "ad"
      ],
      [
        "o",
        "nd"
      ],
      [
        "Ġf",
        "it"
      ],
      [
        "Ġrock",
        "s"
      ],
      [
        "Ġbow",
        "l"
      ],
      [
        "Ġcloud",
        "s"
      ],
      [
        "Ġneighb",
        "or"
      ],
      [
        "Ġwelc",
        "ome"
      ],
      [
        "S",
        "ure"
      ],
      [
        "Ġd",
        "ry"
      ],
      [
        "ck",
        "ed"
      ],
      [
        "ĠJ",
        "enny"
      ],
      [
        "Ġco",
        "zy"
      ],
      [
        "ĠP",
        "ete"
      ],
      [
        "Ġdan",
        "ced"
      ],
      [
        "Ġshap",
        "es"
      ],
      [
        "Ġstre",
        "et"
      ],
      [
        "b",
        "ow"
      ],
      [
        "Ġw",
        "in"
      ],
      [
        "an",
        "g"
      ],
      [
        "Ġy",
        "ard"
      ],
      [
        "Ġli",
        "ft"
      ],
      [
        "Ġwh",
        "ich"
      ],
      [
        "Ġro",
        "lled"
      ],
      [
        "Ġow",
        "ner"
      ],
      [
        "Ġapp",
        "eared"
      ],
      [
        "Ġtast",
        "ed"
      ],
      [
        "Ġmon",
        "key"
      ],
      [
        "'",
        "d"
      ],
      [
        "a",
        "ss"
      ],
      [
        "Ġ",
        "'"
      ],
      [
        "Ġl",
        "ate"
      ],
      [
        "Ġl",
        "unch"
      ],
      [
        "Ġbr",
        "own"
      ],
      [
        "Ġwho",
        "le"
      ],
      [
        "iz",
        "e"
      ],
      [
        "Ġplace",
        "s"
      ],
      [
        "ock",
        "ed"
      ],
      [
        "Ġrain",
        "bow"
      ],
      [
        "Ġhor",
        "se"
      ],
      [
        "M",
        "um"
      ],
      [
        "o",
        "g"
      ],
      [
        "Ġs",
        "ort"
      ],
      [
        "al",
        "m"
      ],
      [
        "Ġwonder",
        "ed"
      ],
      [
        "Ġac",
        "c"
      ],
      [
        "Ġdri",
        "ver"
      ],
      [
        "Ġarm",
        "s"
      ],
      [
        "J",
        "ust"
      ],
      [
        "Ġs",
        "ur"
      ],
      [
        "Ġm",
        "outh"
      ],
      [
        "Ġe",
        "as"
      ],
      [
        "Ġe",
        "gg"
      ],
      [
        "Ġfor",
        "get"
      ],
      [
        "Ġno",
        "ises"
      ],
      [
        "Ġcar",
        "ry"
      ],
      [
        "Ġcor",
        "ner"
      ],
      [
        "t",
        "en"
      ],
      [
        "Ġl",
        "ar"
      ],
      [
        "Ġr",
        "ound"
      ],
      [
        "Ġsh",
        "ook"
      ],
      [
        "Ġke",
        "y"
      ],
      [
        "Ġask",
        "s"
      ],
      [
        "ĠEm",
        "ily"
      ],
      [
        "Ġdr",
        "ink"
      ],
      [
        "Ġdro",
        "pped"
      ],
      [
        "Ġvill",
        "age"
      ],
      [
        "Ġa",
        "ct"
      ],
      [
        "Ġs",
        "ug"
      ],
      [
        "Ġw",
        "ish"
      ],
      [
        "re",
        "ad"
      ],
      [
        "Ġm",
        "ine"
      ],
      [
        "Ġe",
        "ag"
      ],
      [
        "Ġre",
        "sp"
      ],
      [
        "Ġqu",
        "est"
      ],
      [
        "iz",
        "z"
      ],
      [
        "Ġsear",
        "ched"
      ],
      [
        "c",
        "er"
      ],
      [
        "Ġf",
        "ence"
      ],
      [
        "en",
        "s"
      ],
      [
        "Ġsp",
        "icy"
      ],
      [
        "Ġcar",
        "rot"
      ],
      [
        "Ġfo",
        "ot"
      ],
      [
        "Ġche",
        "st"
      ],
      [
        "th",
        "day"
      ],
      [
        "fort",
        "able"
      ],
      [
        "Ġb",
        "ought"
      ],
      [
        "id",
        "er"
      ],
      [
        "Ġth",
        "rew"
      ],
      [
        "Ġne",
        "t"
      ],
      [
        "Ġsp",
        "in"
      ],
      [
        "Ġlove",
        "ly"
      ],
      [
        "Ġcon",
        "fused"
      ],
      [
        "Ġcoll",
        "ect"
      ],
      [
        "Ġinterest",
        "ing"
      ],
      [
        "Ġlar",
        "ge"
      ],
      [
        "J",
        "ane"
      ],
      [
        "g",
        "round"
      ],
      [
        "o",
        "ve"
      ],
      [
        "ll",
        "o"
      ],
      [
        "Ġle",
        "m"
      ],
      [
        "ble",
        "m"
      ],
      [
        "ge",
        "st"
      ],
      [
        "Ġmum",
        "my"
      ],
      [
        "a",
        "ur"
      ],
      [
        "m",
        "an"
      ],
      [
        "Ġ",
        "ent"
      ],
      [
        "Ġw",
        "ild"
      ],
      [
        "le",
        "t"
      ],
      [
        "Ġe",
        "mb"
      ],
      [
        "Ġsh",
        "y"
      ],
      [
        "Ġj",
        "un"
      ],
      [
        "Ġsp",
        "oon"
      ],
      [
        "Ġch",
        "air"
      ],
      [
        "Ġpa",
        "ss"
      ],
      [
        "Ġjo",
        "ke"
      ],
      [
        "ĠC",
        "h"
      ],
      [
        "Ġfar",
        "m"
      ],
      [
        "Jo",
        "e"
      ],
      [
        "Ġma",
        "il"
      ],
      [
        "ĠTo",
        "gether"
      ],
      [
        "bo",
        "ard"
      ],
      [
        "ĠGra",
        "ndma"
      ],
      [
        "Ġpro",
        "blem"
      ],
      [
        "g",
        "ged"
      ],
      [
        "o",
        "bby"
      ],
      [
        "Ġb",
        "en"
      ],
      [
        "it",
        "y"
      ],
      [
        "Ġo",
        "ce"
      ],
      [
        "ar",
        "ra"
      ],
      [
        "Ġle",
        "g"
      ],
      [
        "op",
        "h"
      ],
      [
        "ĠF",
        "inally"
      ],
      [
        "He",
        "y"
      ],
      [
        "Ġhop",
        "ed"
      ],
      [
        "Ġemb",
        "arra"
      ],
      [
        "Ġoce",
        "an"
      ],
      [
        "M",
        "ama"
      ],
      [
        "c",
        "or"
      ],
      [
        "d",
        "le"
      ],
      [
        "Ġ",
        "ign"
      ],
      [
        "Ġa",
        "p"
      ],
      [
        "Ġm",
        "iss"
      ],
      [
        "Ġgr",
        "oup"
      ],
      [
        "Ġbug",
        "s"
      ],
      [
        "sc",
        "ap"
      ],
      [
        "Ġansw",
        "er"
      ],
      [
        "anc",
        "y"
      ],
      [
        "Ġbott",
        "le"
      ],
      [
        "d",
        "en"
      ],
      [
        "Ġa",
        "f"
      ],
      [
        "Ġb",
        "lew"
      ],
      [
        "Ġp",
        "udd"
      ],
      [
        "id",
        "ge"
      ],
      [
        "an",
        "ut"
      ],
      [
        "an",
        "ch"
      ],
      [
        "Ġk",
        "ick"
      ],
      [
        "Ġbut",
        "t"
      ],
      [
        "Ġme",
        "adow"
      ],
      [
        "Ġbr",
        "anch"
      ],
      [
        "Ġtw",
        "ins"
      ],
      [
        "Ġpat",
        "ient"
      ],
      [
        "Ġcut",
        "e"
      ],
      [
        "J",
        "immy"
      ],
      [
        "Ġt",
        "eddy"
      ],
      [
        "Ġl",
        "etter"
      ],
      [
        "Ġp",
        "ile"
      ],
      [
        "Ġbo",
        "ne"
      ],
      [
        "Ġsp",
        "o"
      ],
      [
        "Ġbir",
        "thday"
      ],
      [
        "Ġbed",
        "room"
      ],
      [
        "Ġtal",
        "king"
      ],
      [
        "ul",
        "t"
      ],
      [
        "Ġpoin",
        "ted"
      ],
      [
        "O",
        "f"
      ],
      [
        "er",
        "ly"
      ],
      [
        "le",
        "x"
      ],
      [
        "Ġwe",
        "aring"
      ],
      [
        "Ġsh",
        "r"
      ],
      [
        "Ġcar",
        "ried"
      ],
      [
        "us",
        "ie"
      ],
      [
        "Ġfo",
        "ld"
      ],
      [
        "Ġhid",
        "den"
      ],
      [
        "Ġspl",
        "as"
      ],
      [
        "e",
        "en"
      ],
      [
        "g",
        "ly"
      ],
      [
        "o",
        "ld"
      ],
      [
        "o",
        "se"
      ],
      [
        "Ġb",
        "ur"
      ],
      [
        "Ġh",
        "ours"
      ],
      [
        "id",
        "ent"
      ],
      [
        "Ġu",
        "gly"
      ],
      [
        "Ġfor",
        "ward"
      ],
      [
        "ug",
        "g"
      ],
      [
        "Ġexc",
        "ite"
      ],
      [
        "Ġhold",
        "ing"
      ],
      [
        "Ġmyster",
        "ious"
      ],
      [
        "Ġfig",
        "ure"
      ],
      [
        "N",
        "ow"
      ],
      [
        "p",
        "s"
      ],
      [
        "Ġt",
        "un"
      ],
      [
        "Ġm",
        "is"
      ],
      [
        "Ġst",
        "ood"
      ],
      [
        "am",
        "ed"
      ],
      [
        "ĠM",
        "aybe"
      ],
      [
        "Ġsp",
        "e"
      ],
      [
        "Ġhelp",
        "ful"
      ],
      [
        "Ġro",
        "ll"
      ],
      [
        "Ġbu",
        "bble"
      ],
      [
        "ĠEvery",
        "where"
      ],
      [
        "Ġwr",
        "ite"
      ],
      [
        "eter",
        "m"
      ],
      [
        "Ġheal",
        "thy"
      ],
      [
        "Ġinst",
        "ead"
      ],
      [
        "Ġjun",
        "gle"
      ],
      [
        "Ġexcite",
        "ment"
      ],
      [
        "C",
        "ome"
      ],
      [
        "I",
        "n"
      ],
      [
        "n",
        "ic"
      ],
      [
        "Ġd",
        "eterm"
      ],
      [
        "Ġp",
        "ill"
      ],
      [
        "Ġp",
        "ool"
      ],
      [
        "ri",
        "ll"
      ],
      [
        "Ġfe",
        "et"
      ],
      [
        "Ġpic",
        "nic"
      ],
      [
        "Ġz",
        "oom"
      ],
      [
        "Ġdri",
        "ve"
      ],
      [
        "Ġpers",
        "on"
      ],
      [
        "Ġembarra",
        "ssed"
      ],
      [
        "Ġl",
        "ucky"
      ],
      [
        "Ġm",
        "ot"
      ],
      [
        "ĠS",
        "t"
      ],
      [
        "ow",
        "ed"
      ],
      [
        "Ġplay",
        "ground"
      ],
      [
        "Ġas",
        "leep"
      ],
      [
        "ĠM",
        "um"
      ],
      [
        "ĠJ",
        "en"
      ],
      [
        "Ġj",
        "ar"
      ],
      [
        "Ġor",
        "gan"
      ],
      [
        "Ġpu",
        "zz"
      ],
      [
        "Ġcle",
        "ver"
      ],
      [
        "Ġrem",
        "ind"
      ],
      [
        "Ġthink",
        "s"
      ],
      [
        "Ġretur",
        "ned"
      ],
      [
        "Ġgif",
        "t"
      ],
      [
        "G",
        "ood"
      ],
      [
        "Ġa",
        "nt"
      ],
      [
        "Ġl",
        "ay"
      ],
      [
        "Ġwas",
        "h"
      ],
      [
        "Ġp",
        "h"
      ],
      [
        "Ġr",
        "ope"
      ],
      [
        "Ġk",
        "iss"
      ],
      [
        "Ġan",
        "g"
      ],
      [
        "ra",
        "id"
      ],
      [
        "Ġsp",
        "ider"
      ],
      [
        "Ġte",
        "ach"
      ],
      [
        "Ġimp",
        "re"
      ],
      [
        "Ġmat",
        "ter"
      ],
      [
        "Ġcolour",
        "ful"
      ],
      [
        "Ġstand",
        "ing"
      ],
      [
        "Ġlem",
        "on"
      ],
      [
        "M",
        "y"
      ],
      [
        "M",
        "ummy"
      ],
      [
        "i",
        "an"
      ],
      [
        "Ġs",
        "ne"
      ],
      [
        "Ġf",
        "ancy"
      ],
      [
        "Ġl",
        "it"
      ],
      [
        "Ġin",
        "v"
      ],
      [
        "Ġsw",
        "ings"
      ],
      [
        "ĠC",
        "ome"
      ],
      [
        "Ġsound",
        "s"
      ],
      [
        "ĠK",
        "itty"
      ],
      [
        "Ġaf",
        "raid"
      ],
      [
        "c",
        "ol"
      ],
      [
        "Ġhe",
        "llo"
      ],
      [
        "Ġe",
        "scap"
      ],
      [
        "?\"",
        "."
      ],
      [
        "ul",
        "ar"
      ],
      [
        "Ġturn",
        "s"
      ],
      [
        "Ġgather",
        "ed"
      ],
      [
        "L",
        "ater"
      ],
      [
        "Ġc",
        "ow"
      ],
      [
        "Ġd",
        "i"
      ],
      [
        "Ġm",
        "ad"
      ],
      [
        "Ġm",
        "ind"
      ],
      [
        "Ġsa",
        "iled"
      ],
      [
        "ig",
        "hed"
      ],
      [
        "Ġmu",
        "d"
      ],
      [
        "Ġla",
        "st"
      ],
      [
        "ĠF",
        "red"
      ],
      [
        "ĠSam",
        "my"
      ],
      [
        "Ġgre",
        "w"
      ],
      [
        "Ġtal",
        "ked"
      ],
      [
        "Ġsand",
        "w"
      ],
      [
        "Sara",
        "h"
      ],
      [
        "Ġbuild",
        "ing"
      ],
      [
        "T",
        "o"
      ],
      [
        "a",
        "king"
      ],
      [
        "Ġs",
        "er"
      ],
      [
        "Ġwa",
        "ve"
      ],
      [
        "Ġl",
        "ater"
      ],
      [
        "id",
        "dle"
      ],
      [
        "Ġst",
        "ir"
      ],
      [
        "Ġne",
        "st"
      ],
      [
        "ĠE",
        "ven"
      ],
      [
        "Ġla",
        "w"
      ],
      [
        "Ġpr",
        "ot"
      ],
      [
        "Ġthr",
        "ow"
      ],
      [
        "Ġhop",
        "e"
      ],
      [
        "Ġsmell",
        "ed"
      ],
      [
        "Ġwhe",
        "never"
      ],
      [
        "Ġminut",
        "es"
      ],
      [
        "Ġang",
        "el"
      ],
      [
        "h",
        "ile"
      ],
      [
        "u",
        "al"
      ],
      [
        "Ġwa",
        "nder"
      ],
      [
        "er",
        "t"
      ],
      [
        "Ġm",
        "ist"
      ],
      [
        "Ġp",
        "ar"
      ],
      [
        "Ġst",
        "ep"
      ],
      [
        "Ġsh",
        "irt"
      ],
      [
        "ĠJ",
        "ust"
      ],
      [
        "Ġro",
        "b"
      ],
      [
        "Ġsee",
        "k"
      ],
      [
        "Ġfl",
        "ut"
      ],
      [
        "Ġtight",
        "ly"
      ],
      [
        "Ġspark",
        "ly"
      ],
      [
        "Ġfur",
        "ry"
      ],
      [
        "Ġbreat",
        "h"
      ],
      [
        "Ġmot",
        "or"
      ],
      [
        "a",
        "le"
      ],
      [
        "Ġs",
        "our"
      ],
      [
        "Ġp",
        "le"
      ],
      [
        "Ġg",
        "igg"
      ],
      [
        "il",
        "k"
      ],
      [
        "ve",
        "l"
      ],
      [
        "Ġv",
        "al"
      ],
      [
        "Ġbec",
        "ome"
      ],
      [
        "Ġbl",
        "ow"
      ],
      [
        "Ġpe",
        "anut"
      ],
      [
        "Ġho",
        "pping"
      ],
      [
        "So",
        "on"
      ],
      [
        "Ġgent",
        "ly"
      ],
      [
        "Ġacc",
        "ident"
      ],
      [
        "Ġprot",
        "ect"
      ],
      [
        "Ġrob",
        "ot"
      ],
      [
        "Ġt",
        "ig"
      ],
      [
        "Ġs",
        "ick"
      ],
      [
        "Ġw",
        "ra"
      ],
      [
        "Ġb",
        "er"
      ],
      [
        "Ġf",
        "ing"
      ],
      [
        "Ġc",
        "alm"
      ],
      [
        "Ġm",
        "ilk"
      ],
      [
        "Ġex",
        "p"
      ],
      [
        "Ġex",
        "am"
      ],
      [
        "ĠE",
        "nd"
      ],
      [
        "Åĵ",
        "Let"
      ],
      [
        "Ġany",
        "one"
      ],
      [
        "Ġche",
        "er"
      ],
      [
        "ĠTweet",
        "y"
      ],
      [
        "Ġpeace",
        "ful"
      ],
      [
        "Ġdeterm",
        "ined"
      ],
      [
        "M",
        "ia"
      ],
      [
        "s",
        "ist"
      ],
      [
        "u",
        "nt"
      ],
      [
        "Ġs",
        "el"
      ],
      [
        "Ġm",
        "ed"
      ],
      [
        "Ġbe",
        "ll"
      ],
      [
        "Ġas",
        "h"
      ],
      [
        "Ġgo",
        "at"
      ],
      [
        "Ġgra",
        "b"
      ],
      [
        "Ġstor",
        "m"
      ],
      [
        "Ġwait",
        "ing"
      ],
      [
        "Ġyell",
        "ed"
      ],
      [
        "Ġsmell",
        "y"
      ],
      [
        "Ġtri",
        "p"
      ],
      [
        "h",
        "in"
      ],
      [
        "Ġw",
        "ip"
      ],
      [
        "at",
        "ing"
      ],
      [
        "ir",
        "d"
      ],
      [
        "Ġn",
        "ut"
      ],
      [
        "ce",
        "pt"
      ],
      [
        "oo",
        "se"
      ],
      [
        "Ġwe",
        "ek"
      ],
      [
        "Ġne",
        "ck"
      ],
      [
        "al",
        "ous"
      ],
      [
        "ur",
        "ry"
      ],
      [
        "Ġno",
        "se"
      ],
      [
        "get",
        "able"
      ],
      [
        "Ġmat",
        "ch"
      ],
      [
        "Ġansw",
        "ered"
      ],
      [
        "Ġje",
        "alous"
      ],
      [
        "epend",
        "able"
      ],
      [
        "Ġtrou",
        "ble"
      ],
      [
        "Ġpudd",
        "le"
      ],
      [
        "S",
        "t"
      ],
      [
        "b",
        "all"
      ],
      [
        "e",
        "y"
      ],
      [
        "Ġt",
        "ear"
      ],
      [
        "Ġw",
        "ide"
      ],
      [
        "Ġc",
        "oo"
      ],
      [
        "Ġst",
        "ar"
      ],
      [
        "ĠB",
        "e"
      ],
      [
        "Ġas",
        "king"
      ],
      [
        "Ġjump",
        "ing"
      ],
      [
        "Ġtow",
        "er"
      ],
      [
        "Ġve",
        "getable"
      ],
      [
        "Ġgi",
        "ant"
      ],
      [
        "Ġdisapp",
        "eared"
      ],
      [
        "Ġcou",
        "ch"
      ],
      [
        "Ġsuc",
        "cess"
      ],
      [
        "Ġh",
        "it"
      ],
      [
        "en",
        "er"
      ],
      [
        "Ġsa",
        "f"
      ],
      [
        "et",
        "h"
      ],
      [
        "Ġse",
        "at"
      ],
      [
        "Ġco",
        "in"
      ],
      [
        "Ġmo",
        "on"
      ],
      [
        "Ġcom",
        "es"
      ],
      [
        "Ġfin",
        "ish"
      ],
      [
        "Ġtreat",
        "s"
      ],
      [
        "Ġmist",
        "ake"
      ],
      [
        "A",
        "my"
      ],
      [
        "W",
        "here"
      ],
      [
        "Ġ",
        "On"
      ],
      [
        "Ġto",
        "m"
      ],
      [
        "Ġm",
        "ountain"
      ],
      [
        "Ġm",
        "iddle"
      ],
      [
        "Ġg",
        "as"
      ],
      [
        "ĠS",
        "andy"
      ],
      [
        "ĠT",
        "V"
      ],
      [
        "Ġsh",
        "ore"
      ],
      [
        "ĠJ",
        "im"
      ],
      [
        "um",
        "ber"
      ],
      [
        "ell",
        "y"
      ],
      [
        "Ġbu",
        "ll"
      ],
      [
        "Ġfeel",
        "s"
      ],
      [
        "Ġsel",
        "fish"
      ],
      [
        "L",
        "ila"
      ],
      [
        "l",
        "ight"
      ],
      [
        "p",
        "ill"
      ],
      [
        "v",
        "ous"
      ],
      [
        "Ġb",
        "and"
      ],
      [
        "Ġwa",
        "gon"
      ],
      [
        "er",
        "pill"
      ],
      [
        "ĠB",
        "obby"
      ],
      [
        "ĠM",
        "ummy"
      ],
      [
        "Ġno",
        "d"
      ],
      [
        "if",
        "e"
      ],
      [
        "Ġch",
        "ick"
      ],
      [
        "Ġcat",
        "erpill"
      ],
      [
        "Ġrun",
        "s"
      ],
      [
        "Ġdan",
        "cing"
      ],
      [
        "Ġhid",
        "ing"
      ],
      [
        "ĠTh",
        "ank"
      ],
      [
        "Ġthank",
        "ful"
      ],
      [
        "Ġspl",
        "ash"
      ],
      [
        "ĠMr",
        "s"
      ],
      [
        "Ġscream",
        "ed"
      ],
      [
        "Ġwhist",
        "le"
      ],
      [
        "Ġresp",
        "ect"
      ],
      [
        "G",
        "ra"
      ],
      [
        "S",
        "ally"
      ],
      [
        "Ġw",
        "om"
      ],
      [
        "Ġthe",
        "se"
      ],
      [
        "in",
        "ted"
      ],
      [
        "Ġl",
        "ad"
      ],
      [
        "Ġp",
        "izz"
      ],
      [
        "Ġg",
        "ener"
      ],
      [
        "an",
        "ny"
      ],
      [
        "es",
        "e"
      ],
      [
        "ĠM",
        "ar"
      ],
      [
        "Ġpa",
        "w"
      ],
      [
        "Ġtr",
        "ue"
      ],
      [
        "Ġknow",
        "ing"
      ],
      [
        "ĠJohn",
        "ny"
      ],
      [
        "Ġreal",
        "ised"
      ],
      [
        "Ġrock",
        "et"
      ],
      [
        "Ġcla",
        "ss"
      ],
      [
        "Ġcreat",
        "ive"
      ],
      [
        "Ġprom",
        "ise"
      ],
      [
        "Ġcaterpill",
        "ar"
      ],
      [
        "Ġwom",
        "an"
      ],
      [
        "P",
        "lease"
      ],
      [
        "b",
        "in"
      ],
      [
        "r",
        "ated"
      ],
      [
        "Ġs",
        "il"
      ],
      [
        "Ġs",
        "oup"
      ],
      [
        "Ġc",
        "ard"
      ],
      [
        "is",
        "a"
      ],
      [
        "ir",
        "p"
      ],
      [
        "ur",
        "ed"
      ],
      [
        "ĠA",
        "n"
      ],
      [
        "Ġch",
        "ased"
      ],
      [
        "Ġhug",
        "s"
      ],
      [
        "Ġpo",
        "lice"
      ],
      [
        "iz",
        "zy"
      ],
      [
        "ct",
        "us"
      ],
      [
        "Ġsleep",
        "y"
      ],
      [
        "Ġcray",
        "ons"
      ],
      [
        "Ġlad",
        "der"
      ],
      [
        "Ġgener",
        "ous"
      ],
      [
        "E",
        "m"
      ],
      [
        "c",
        "om"
      ],
      [
        "e",
        "b"
      ],
      [
        "y",
        "ing"
      ],
      [
        "Ġt",
        "id"
      ],
      [
        "Ġt",
        "ag"
      ],
      [
        "Ġd",
        "ependable"
      ],
      [
        "Ġg",
        "ar"
      ],
      [
        "The",
        "re"
      ],
      [
        "Ġsa",
        "ve"
      ],
      [
        "or",
        "s"
      ],
      [
        "Ġn",
        "er"
      ],
      [
        "Ġwe",
        "ak"
      ],
      [
        "Ġre",
        "cor"
      ],
      [
        "Ġca",
        "ctus"
      ],
      [
        "Ġbr",
        "ush"
      ],
      [
        "Ġta",
        "ken"
      ],
      [
        "Ġsk",
        "ipped"
      ],
      [
        "us",
        "ual"
      ],
      [
        "ĠP",
        "eter"
      ],
      [
        "Ġte",
        "st"
      ],
      [
        "Ġun",
        "usual"
      ],
      [
        "Ġapp",
        "les"
      ],
      [
        "Ġpus",
        "h"
      ],
      [
        "Ġdisapp",
        "o"
      ],
      [
        "Ġcir",
        "c"
      ],
      [
        "c",
        "ient"
      ],
      [
        "l",
        "and"
      ],
      [
        "u",
        "ce"
      ],
      [
        "w",
        "el"
      ],
      [
        "Ġt",
        "er"
      ],
      [
        "Ġt",
        "rave"
      ],
      [
        "or",
        "n"
      ],
      [
        "Ġe",
        "m"
      ],
      [
        "Ġk",
        "ing"
      ],
      [
        "Ġan",
        "cient"
      ],
      [
        "Ġle",
        "ad"
      ],
      [
        "Ġfe",
        "ather"
      ],
      [
        "Ġman",
        "ag"
      ],
      [
        "Ġme",
        "asure"
      ],
      [
        "Åĵ",
        "It"
      ],
      [
        "Ġtr",
        "ust"
      ],
      [
        "ump",
        "y"
      ],
      [
        "ap",
        "a"
      ],
      [
        "ac",
        "he"
      ],
      [
        "Ġsong",
        "s"
      ],
      [
        "Ġdes",
        "k"
      ],
      [
        "Ġpower",
        "ful"
      ],
      [
        "Ġner",
        "vous"
      ],
      [
        "D",
        "ad"
      ],
      [
        "i",
        "pp"
      ],
      [
        "i",
        "ant"
      ],
      [
        "Ġb",
        "al"
      ],
      [
        "Ġb",
        "rill"
      ],
      [
        "ĠS",
        "ome"
      ],
      [
        "Ġshe",
        "ll"
      ],
      [
        "Ġst",
        "ret"
      ],
      [
        "oo",
        "f"
      ],
      [
        "ke",
        "ep"
      ],
      [
        "al",
        "s"
      ],
      [
        "um",
        "sy"
      ],
      [
        "Ġco",
        "vered"
      ],
      [
        "Ġkne",
        "e"
      ],
      [
        "Ġche",
        "ese"
      ],
      [
        "Ġtast",
        "e"
      ],
      [
        "Ġsu",
        "pp"
      ],
      [
        "Ġje",
        "wel"
      ],
      [
        "Ġtig",
        "er"
      ],
      [
        "Ġvegetable",
        "s"
      ],
      [
        "Ġpizz",
        "a"
      ],
      [
        "Ġter",
        "ri"
      ],
      [
        "Ġbrill",
        "iant"
      ],
      [
        "keep",
        "er"
      ],
      [
        "Ġa",
        "dd"
      ],
      [
        "in",
        "ation"
      ],
      [
        "Ġb",
        "ra"
      ],
      [
        "Ġhe",
        "l"
      ],
      [
        "Ġm",
        "ach"
      ],
      [
        "ĠS",
        "omet"
      ],
      [
        "ĠS",
        "usie"
      ],
      [
        "or",
        "k"
      ],
      [
        "Ġof",
        "ten"
      ],
      [
        "ur",
        "se"
      ],
      [
        "Ġcl",
        "ay"
      ],
      [
        "ust",
        "rated"
      ],
      [
        "Åĵ",
        "That"
      ],
      [
        "Ġplant",
        "s"
      ],
      [
        "umb",
        "led"
      ],
      [
        "Ġrel",
        "ax"
      ],
      [
        "Ġph",
        "one"
      ],
      [
        "Ġem",
        "pt"
      ],
      [
        "g",
        "y"
      ],
      [
        "m",
        "o"
      ],
      [
        "u",
        "p"
      ],
      [
        "Ġf",
        "ather"
      ],
      [
        "Ġg",
        "em"
      ],
      [
        "Ġre",
        "g"
      ],
      [
        "Ġex",
        "t"
      ],
      [
        "ĠA",
        "lice"
      ],
      [
        "Ġone",
        "s"
      ],
      [
        "Ġtw",
        "irl"
      ],
      [
        "Ġche",
        "w"
      ],
      [
        "ĠAnd",
        "y"
      ],
      [
        "Ġstrong",
        "er"
      ],
      [
        "Ġcr",
        "ack"
      ],
      [
        "Ġunderst",
        "ood"
      ],
      [
        "Ġpretend",
        "ed"
      ],
      [
        "Ġstu",
        "dy"
      ],
      [
        "Ġsnack",
        "s"
      ],
      [
        "Ġmark",
        "et"
      ],
      [
        "Ġben",
        "ch"
      ],
      [
        "ÅĵLet",
        "Ã¢"
      ],
      [
        "Ġgar",
        "age"
      ],
      [
        "Ġdisappo",
        "inted"
      ],
      [
        "Ġempt",
        "y"
      ],
      [
        "A",
        "lice"
      ],
      [
        "M",
        "ary"
      ],
      [
        "u",
        "b"
      ],
      [
        "Ġ",
        "ed"
      ],
      [
        "ed",
        "ient"
      ],
      [
        "Ġh",
        "oney"
      ],
      [
        "Ġsa",
        "ved"
      ],
      [
        "im",
        "p"
      ],
      [
        "Ġso",
        "ck"
      ],
      [
        "Ġon",
        "ce"
      ],
      [
        "ĠB",
        "r"
      ],
      [
        "Ġis",
        "land"
      ],
      [
        "ell",
        "a"
      ],
      [
        "Ġv",
        "i"
      ],
      [
        "Ġmo",
        "d"
      ],
      [
        "us",
        "hed"
      ],
      [
        "Ġfr",
        "ustrated"
      ],
      [
        "Ġde",
        "ad"
      ],
      [
        "Ġbright",
        "ly"
      ],
      [
        "ol",
        "a"
      ],
      [
        "Ġfix",
        "ed"
      ],
      [
        "Ġescap",
        "e"
      ],
      [
        "W",
        "ell"
      ],
      [
        "n",
        "ie"
      ],
      [
        "y",
        "ear"
      ],
      [
        "Ġs",
        "ight"
      ],
      [
        "Ġw",
        "is"
      ],
      [
        "Ġo",
        "ven"
      ],
      [
        "an",
        "a"
      ],
      [
        "Ġst",
        "uff"
      ],
      [
        "Ġr",
        "ing"
      ],
      [
        "Ġsh",
        "ake"
      ],
      [
        "Ġsp",
        "read"
      ],
      [
        "Ġar",
        "row"
      ],
      [
        "ic",
        "ine"
      ],
      [
        "Ġro",
        "ad"
      ],
      [
        "Åĵ",
        "Yes"
      ],
      [
        "Ġcall",
        "ing"
      ],
      [
        "Ġte",
        "am"
      ],
      [
        "Ġmess",
        "y"
      ],
      [
        "air",
        "s"
      ],
      [
        "Ġduck",
        "s"
      ],
      [
        "itten",
        "s"
      ],
      [
        "Ġdir",
        "t"
      ],
      [
        "Ġob",
        "edient"
      ],
      [
        "Ġdist",
        "ance"
      ],
      [
        "Ġdelight",
        "ed"
      ],
      [
        "Ġsol",
        "ve"
      ],
      [
        "Ġeas",
        "y"
      ],
      [
        "Ġgigg",
        "led"
      ],
      [
        "Ġmed",
        "icine"
      ],
      [
        "Ġtom",
        "orrow"
      ],
      [
        "Ġrecor",
        "d"
      ],
      [
        "Ġmanag",
        "ed"
      ],
      [
        "mo",
        "st"
      ],
      [
        "Ġt",
        "ick"
      ],
      [
        "Ġt",
        "ask"
      ],
      [
        "Ġa",
        "w"
      ],
      [
        "Ġc",
        "omet"
      ],
      [
        "Ġp",
        "in"
      ],
      [
        "Ġp",
        "enny"
      ],
      [
        "or",
        "ge"
      ],
      [
        "ĠL",
        "ittle"
      ],
      [
        "Ġwh",
        "is"
      ],
      [
        "Ġgo",
        "ld"
      ],
      [
        "Ġca",
        "bin"
      ],
      [
        "Ġal",
        "most"
      ],
      [
        "Ġme",
        "ant"
      ],
      [
        "Ġdec",
        "or"
      ],
      [
        "ĠD",
        "on"
      ],
      [
        "Ġtake",
        "s"
      ],
      [
        "Ġta",
        "ught"
      ],
      [
        "Ġpa",
        "ssed"
      ],
      [
        "Ġsl",
        "id"
      ],
      [
        "ia",
        "ble"
      ],
      [
        "Ġlove",
        "s"
      ],
      [
        "Ġfr",
        "own"
      ],
      [
        "Ġde",
        "st"
      ],
      [
        "Ġcont",
        "ent"
      ],
      [
        "bo",
        "x"
      ],
      [
        "Ġcho",
        "col"
      ],
      [
        "Ġrel",
        "iable"
      ],
      [
        "Ġinc",
        "red"
      ],
      [
        "Ġpuzz",
        "le"
      ],
      [
        "Ġimpre",
        "ssed"
      ],
      [
        "Ġext",
        "ra"
      ],
      [
        "B",
        "illy"
      ],
      [
        "c",
        "y"
      ],
      [
        "w",
        "ork"
      ],
      [
        "he",
        "never"
      ],
      [
        "Ġa",
        "dded"
      ],
      [
        "Ġf",
        "il"
      ],
      [
        "Ġo",
        "k"
      ],
      [
        "at",
        "ely"
      ],
      [
        "Ġha",
        "ng"
      ],
      [
        "ĠThe",
        "ir"
      ],
      [
        "Ġshe",
        "lf"
      ],
      [
        "Ġst",
        "ream"
      ],
      [
        "ur",
        "ing"
      ],
      [
        "Ġfe",
        "ar"
      ],
      [
        "Ġkn",
        "ocked"
      ],
      [
        "Ġgra",
        "nd"
      ],
      [
        "Ġmo",
        "ving"
      ],
      [
        "Ġor",
        "d"
      ],
      [
        "Ġtur",
        "key"
      ],
      [
        "Ġba",
        "ld"
      ],
      [
        "Ġwhe",
        "el"
      ],
      [
        "Ġgi",
        "ving"
      ],
      [
        "Ġhappen",
        "ing"
      ],
      [
        "Ġdisco",
        "vered"
      ],
      [
        "Ġlea",
        "f"
      ],
      [
        "oph",
        "ie"
      ],
      [
        "B",
        "e"
      ],
      [
        "j",
        "ect"
      ],
      [
        "u",
        "z"
      ],
      [
        "Ġ",
        "O"
      ],
      [
        "Ġ",
        "icy"
      ],
      [
        "Ġt",
        "ie"
      ],
      [
        "Ġa",
        "v"
      ],
      [
        "Ġs",
        "ighed"
      ],
      [
        "in",
        "a"
      ],
      [
        "re",
        "ady"
      ],
      [
        "Ġp",
        "op"
      ],
      [
        "Ġr",
        "id"
      ],
      [
        "itt",
        "er"
      ],
      [
        "ent",
        "ion"
      ],
      [
        "un",
        "k"
      ],
      [
        "Ġli",
        "z"
      ],
      [
        "Ġdo",
        "lp"
      ],
      [
        "Ġbo",
        "ard"
      ],
      [
        "Ġlo",
        "ck"
      ],
      [
        "Ġsp",
        "end"
      ],
      [
        "ur",
        "ous"
      ],
      [
        "Ġal",
        "ready"
      ],
      [
        "Ġsc",
        "r"
      ],
      [
        "Ġfl",
        "uffy"
      ],
      [
        "Ġyour",
        "self"
      ],
      [
        "Ġpick",
        "ing"
      ],
      [
        "Ġadvent",
        "urous"
      ],
      [
        "Ġac",
        "cept"
      ],
      [
        "Ġcr",
        "own"
      ],
      [
        "Ġfav",
        "our"
      ],
      [
        "Ġcook",
        "ie"
      ],
      [
        "Ġstone",
        "s"
      ],
      [
        "Ġcelebr",
        "ate"
      ],
      [
        "Ġquest",
        "ions"
      ],
      [
        "Ġsne",
        "e"
      ],
      [
        "Ġaccident",
        "ally"
      ],
      [
        "Ġl",
        "ine"
      ],
      [
        "ar",
        "p"
      ],
      [
        "at",
        "s"
      ],
      [
        "Ġst",
        "ra"
      ],
      [
        "Ġy",
        "og"
      ],
      [
        "Ġsh",
        "ip"
      ],
      [
        "Ġsh",
        "arp"
      ],
      [
        "Ġli",
        "ve"
      ],
      [
        "op",
        "us"
      ],
      [
        "ĠW",
        "henever"
      ],
      [
[...]
